{
  "version": "1.0",
  "truncation": null,
  "padding": null,
  "added_tokens": [
    {
      "id": 0,
      "content": "[PAD]",
      "single_word": false,
      "lstrip": false,
      "rstrip": false,
      "normalized": false,
      "special": true
    },
    {
      "id": 1,
      "content": "[UNK]",
      "single_word": false,
      "lstrip": false,
      "rstrip": false,
      "normalized": false,
      "special": true
    },
    {
      "id": 2,
      "content": "[CLS]",
      "single_word": false,
      "lstrip": false,
      "rstrip": false,
      "normalized": false,
      "special": true
    },
    {
      "id": 3,
      "content": "[SEP]",
      "single_word": false,
      "lstrip": false,
      "rstrip": false,
      "normalized": false,
      "special": true
    },
    {
      "id": 4,
      "content": "[MASK]",
      "single_word": false,
      "lstrip": false,
      "rstrip": false,
      "normalized": false,
      "special": true
    },
    {
      "id": 5,
      "content": "[BOS]",
      "single_word": false,
      "lstrip": false,
      "rstrip": false,
      "normalized": false,
      "special": true
    },
    {
      "id": 6,
      "content": "[EOS]",
      "single_word": false,
      "lstrip": false,
      "rstrip": false,
      "normalized": false,
      "special": true
    }
  ],
  "normalizer": null,
  "pre_tokenizer": {
    "type": "Whitespace"
  },
  "post_processor": {
    "type": "TemplateProcessing",
    "single": [
      {
        "SpecialToken": {
          "id": "[BOS]",
          "type_id": 0
        }
      },
      {
        "Sequence": {
          "id": "A",
          "type_id": 0
        }
      },
      {
        "SpecialToken": {
          "id": "[EOS]",
          "type_id": 0
        }
      }
    ],
    "pair": [
      {
        "Sequence": {
          "id": "A",
          "type_id": 0
        }
      },
      {
        "Sequence": {
          "id": "B",
          "type_id": 1
        }
      }
    ],
    "special_tokens": {
      "[BOS]": {
        "id": "[BOS]",
        "ids": [
          5
        ],
        "tokens": [
          "[BOS]"
        ]
      },
      "[EOS]": {
        "id": "[EOS]",
        "ids": [
          6
        ],
        "tokens": [
          "[EOS]"
        ]
      }
    }
  },
  "decoder": null,
  "model": {
    "type": "BPE",
    "dropout": null,
    "unk_token": "[UNK]",
    "continuing_subword_prefix": null,
    "end_of_word_suffix": null,
    "fuse_unk": false,
    "byte_fallback": false,
    "ignore_merges": false,
    "vocab": {
      "[PAD]": 0,
      "[UNK]": 1,
      "[CLS]": 2,
      "[SEP]": 3,
      "[MASK]": 4,
      "[BOS]": 5,
      "[EOS]": 6,
      "!": 7,
      "\"": 8,
      "#": 9,
      "%": 10,
      "'": 11,
      "(": 12,
      ")": 13,
      "*": 14,
      "+": 15,
      ",": 16,
      "-": 17,
      ".": 18,
      "/": 19,
      "0": 20,
      "1": 21,
      "2": 22,
      "3": 23,
      "4": 24,
      "5": 25,
      "6": 26,
      "7": 27,
      "8": 28,
      "9": 29,
      ":": 30,
      ";": 31,
      "=": 32,
      "?": 33,
      "@": 34,
      "A": 35,
      "B": 36,
      "C": 37,
      "D": 38,
      "E": 39,
      "F": 40,
      "G": 41,
      "H": 42,
      "I": 43,
      "J": 44,
      "K": 45,
      "L": 46,
      "M": 47,
      "N": 48,
      "O": 49,
      "P": 50,
      "Q": 51,
      "R": 52,
      "S": 53,
      "T": 54,
      "U": 55,
      "V": 56,
      "W": 57,
      "X": 58,
      "Y": 59,
      "Z": 60,
      "[": 61,
      "\\": 62,
      "]": 63,
      "_": 64,
      "`": 65,
      "a": 66,
      "b": 67,
      "c": 68,
      "d": 69,
      "e": 70,
      "f": 71,
      "g": 72,
      "h": 73,
      "i": 74,
      "j": 75,
      "k": 76,
      "l": 77,
      "m": 78,
      "n": 79,
      "o": 80,
      "p": 81,
      "q": 82,
      "r": 83,
      "s": 84,
      "t": 85,
      "u": 86,
      "v": 87,
      "w": 88,
      "x": 89,
      "y": 90,
      "z": 91,
      "|": 92,
      "~": 93,
      "·": 94,
      "—": 95,
      "…": 96,
      "、": 97,
      "。": 98,
      "《": 99,
      "》": 100,
      "「": 101,
      "」": 102,
      "【": 103,
      "】": 104,
      "あ": 105,
      "い": 106,
      "う": 107,
      "お": 108,
      "か": 109,
      "が": 110,
      "き": 111,
      "く": 112,
      "こ": 113,
      "さ": 114,
      "し": 115,
      "じ": 116,
      "す": 117,
      "せ": 118,
      "そ": 119,
      "ぞ": 120,
      "た": 121,
      "だ": 122,
      "っ": 123,
      "つ": 124,
      "て": 125,
      "で": 126,
      "と": 127,
      "ど": 128,
      "な": 129,
      "に": 130,
      "ね": 131,
      "の": 132,
      "は": 133,
      "ぶ": 134,
      "べ": 135,
      "ま": 136,
      "め": 137,
      "も": 138,
      "ょ": 139,
      "よ": 140,
      "ら": 141,
      "り": 142,
      "る": 143,
      "れ": 144,
      "わ": 145,
      "を": 146,
      "ん": 147,
      "エ": 148,
      "ゴ": 149,
      "ト": 150,
      "ヘ": 151,
      "ミ": 152,
      "リ": 153,
      "ー": 154,
      "一": 155,
      "丁": 156,
      "七": 157,
      "万": 158,
      "丈": 159,
      "三": 160,
      "上": 161,
      "下": 162,
      "丌": 163,
      "不": 164,
      "与": 165,
      "丐": 166,
      "丑": 167,
      "专": 168,
      "且": 169,
      "世": 170,
      "丘": 171,
      "丙": 172,
      "业": 173,
      "丛": 174,
      "东": 175,
      "丝": 176,
      "丞": 177,
      "丢": 178,
      "两": 179,
      "严": 180,
      "丧": 181,
      "个": 182,
      "丫": 183,
      "中": 184,
      "丰": 185,
      "串": 186,
      "临": 187,
      "丸": 188,
      "丹": 189,
      "为": 190,
      "主": 191,
      "丽": 192,
      "举": 193,
      "乃": 194,
      "久": 195,
      "么": 196,
      "义": 197,
      "之": 198,
      "乌": 199,
      "乍": 200,
      "乎": 201,
      "乏": 202,
      "乐": 203,
      "乒": 204,
      "乓": 205,
      "乔": 206,
      "乖": 207,
      "乘": 208,
      "乙": 209,
      "乜": 210,
      "九": 211,
      "乞": 212,
      "也": 213,
      "习": 214,
      "乡": 215,
      "书": 216,
      "买": 217,
      "乱": 218,
      "乳": 219,
      "乾": 220,
      "了": 221,
      "予": 222,
      "争": 223,
      "事": 224,
      "二": 225,
      "于": 226,
      "亏": 227,
      "云": 228,
      "互": 229,
      "五": 230,
      "井": 231,
      "亘": 232,
      "亚": 233,
      "些": 234,
      "亡": 235,
      "亢": 236,
      "交": 237,
      "亥": 238,
      "亦": 239,
      "产": 240,
      "亨": 241,
      "亩": 242,
      "享": 243,
      "京": 244,
      "亭": 245,
      "亮": 246,
      "亲": 247,
      "亵": 248,
      "人": 249,
      "亿": 250,
      "什": 251,
      "仁": 252,
      "仃": 253,
      "仄": 254,
      "仅": 255,
      "仆": 256,
      "仇": 257,
      "今": 258,
      "介": 259,
      "仍": 260,
      "从": 261,
      "仑": 262,
      "仓": 263,
      "仔": 264,
      "仕": 265,
      "他": 266,
      "仗": 267,
      "付": 268,
      "仙": 269,
      "仞": 270,
      "代": 271,
      "令": 272,
      "以": 273,
      "仨": 274,
      "仪": 275,
      "们": 276,
      "仰": 277,
      "仲": 278,
      "件": 279,
      "价": 280,
      "任": 281,
      "份": 282,
      "仿": 283,
      "企": 284,
      "伉": 285,
      "伊": 286,
      "伍": 287,
      "伎": 288,
      "伏": 289,
      "伐": 290,
      "休": 291,
      "众": 292,
      "优": 293,
      "伙": 294,
      "会": 295,
      "伞": 296,
      "伟": 297,
      "传": 298,
      "伤": 299,
      "伥": 300,
      "伦": 301,
      "伪": 302,
      "伫": 303,
      "伯": 304,
      "估": 305,
      "伴": 306,
      "伶": 307,
      "伸": 308,
      "伺": 309,
      "似": 310,
      "伽": 311,
      "但": 312,
      "位": 313,
      "低": 314,
      "住": 315,
      "佐": 316,
      "佑": 317,
      "体": 318,
      "何": 319,
      "佗": 320,
      "余": 321,
      "佛": 322,
      "作": 323,
      "佝": 324,
      "佞": 325,
      "你": 326,
      "佣": 327,
      "佩": 328,
      "佬": 329,
      "佯": 330,
      "佳": 331,
      "佻": 332,
      "佼": 333,
      "使": 334,
      "侃": 335,
      "侄": 336,
      "侈": 337,
      "例": 338,
      "侍": 339,
      "侏": 340,
      "供": 341,
      "依": 342,
      "侠": 343,
      "侣": 344,
      "侥": 345,
      "侦": 346,
      "侧": 347,
      "侨": 348,
      "侩": 349,
      "侬": 350,
      "侮": 351,
      "侯": 352,
      "侵": 353,
      "便": 354,
      "促": 355,
      "俄": 356,
      "俊": 357,
      "俎": 358,
      "俏": 359,
      "俐": 360,
      "俑": 361,
      "俗": 362,
      "俘": 363,
      "保": 364,
      "俞": 365,
      "信": 366,
      "俦": 367,
      "俨": 368,
      "俩": 369,
      "俪": 370,
      "俭": 371,
      "修": 372,
      "俯": 373,
      "俱": 374,
      "俺": 375,
      "倌": 376,
      "倍": 377,
      "倏": 378,
      "倒": 379,
      "倔": 380,
      "倘": 381,
      "候": 382,
      "倚": 383,
      "倜": 384,
      "借": 385,
      "倡": 386,
      "倦": 387,
      "倨": 388,
      "倩": 389,
      "倪": 390,
      "倭": 391,
      "债": 392,
      "值": 393,
      "倾": 394,
      "偃": 395,
      "假": 396,
      "偈": 397,
      "偌": 398,
      "偎": 399,
      "偏": 400,
      "偕": 401,
      "做": 402,
      "停": 403,
      "健": 404,
      "偶": 405,
      "偷": 406,
      "偻": 407,
      "偾": 408,
      "偿": 409,
      "傀": 410,
      "傅": 411,
      "傍": 412,
      "傣": 413,
      "傥": 414,
      "储": 415,
      "催": 416,
      "傲": 417,
      "傻": 418,
      "像": 419,
      "僚": 420,
      "僧": 421,
      "僭": 422,
      "僵": 423,
      "僻": 424,
      "儆": 425,
      "儒": 426,
      "儡": 427,
      "儿": 428,
      "兀": 429,
      "允": 430,
      "元": 431,
      "兄": 432,
      "充": 433,
      "兆": 434,
      "先": 435,
      "光": 436,
      "克": 437,
      "免": 438,
      "兑": 439,
      "兔": 440,
      "党": 441,
      "兜": 442,
      "兢": 443,
      "入": 444,
      "全": 445,
      "八": 446,
      "公": 447,
      "六": 448,
      "兮": 449,
      "兰": 450,
      "共": 451,
      "关": 452,
      "兴": 453,
      "兵": 454,
      "其": 455,
      "具": 456,
      "典": 457,
      "兹": 458,
      "养": 459,
      "兼": 460,
      "兽": 461,
      "冀": 462,
      "内": 463,
      "冈": 464,
      "冉": 465,
      "册": 466,
      "再": 467,
      "冒": 468,
      "冕": 469,
      "冗": 470,
      "写": 471,
      "军": 472,
      "农": 473,
      "冠": 474,
      "冢": 475,
      "冤": 476,
      "冥": 477,
      "冬": 478,
      "冯": 479,
      "冰": 480,
      "冲": 481,
      "决": 482,
      "况": 483,
      "冶": 484,
      "冷": 485,
      "冻": 486,
      "冽": 487,
      "净": 488,
      "凄": 489,
      "准": 490,
      "凉": 491,
      "凋": 492,
      "凌": 493,
      "减": 494,
      "凑": 495,
      "凛": 496,
      "凝": 497,
      "几": 498,
      "凡": 499,
      "凤": 500,
      "凭": 501,
      "凯": 502,
      "凰": 503,
      "凳": 504,
      "凶": 505,
      "凸": 506,
      "凹": 507,
      "出": 508,
      "击": 509,
      "函": 510,
      "凿": 511,
      "刀": 512,
      "刁": 513,
      "刃": 514,
      "分": 515,
      "切": 516,
      "刊": 517,
      "刍": 518,
      "刎": 519,
      "刑": 520,
      "划": 521,
      "列": 522,
      "刘": 523,
      "则": 524,
      "刚": 525,
      "创": 526,
      "初": 527,
      "删": 528,
      "判": 529,
      "刨": 530,
      "利": 531,
      "别": 532,
      "刮": 533,
      "到": 534,
      "刳": 535,
      "制": 536,
      "刷": 537,
      "券": 538,
      "刹": 539,
      "刺": 540,
      "刻": 541,
      "刽": 542,
      "剁": 543,
      "剂": 544,
      "剃": 545,
      "削": 546,
      "前": 547,
      "剐": 548,
      "剑": 549,
      "剔": 550,
      "剖": 551,
      "剜": 552,
      "剥": 553,
      "剧": 554,
      "剩": 555,
      "剪": 556,
      "副": 557,
      "割": 558,
      "剽": 559,
      "剿": 560,
      "劈": 561,
      "力": 562,
      "劝": 563,
      "办": 564,
      "功": 565,
      "加": 566,
      "务": 567,
      "劣": 568,
      "动": 569,
      "助": 570,
      "努": 571,
      "劫": 572,
      "励": 573,
      "劲": 574,
      "劳": 575,
      "劾": 576,
      "势": 577,
      "勃": 578,
      "勇": 579,
      "勉": 580,
      "勋": 581,
      "勒": 582,
      "勘": 583,
      "募": 584,
      "勠": 585,
      "勤": 586,
      "勺": 587,
      "勾": 588,
      "勿": 589,
      "匀": 590,
      "包": 591,
      "匆": 592,
      "匍": 593,
      "匐": 594,
      "匕": 595,
      "化": 596,
      "北": 597,
      "匙": 598,
      "匝": 599,
      "匠": 600,
      "匣": 601,
      "匪": 602,
      "匮": 603,
      "匹": 604,
      "区": 605,
      "医": 606,
      "匾": 607,
      "匿": 608,
      "十": 609,
      "千": 610,
      "升": 611,
      "午": 612,
      "半": 613,
      "华": 614,
      "协": 615,
      "卑": 616,
      "卒": 617,
      "卓": 618,
      "单": 619,
      "卖": 620,
      "南": 621,
      "博": 622,
      "卜": 623,
      "卞": 624,
      "卟": 625,
      "占": 626,
      "卡": 627,
      "卢": 628,
      "卤": 629,
      "卦": 630,
      "卧": 631,
      "卫": 632,
      "卯": 633,
      "印": 634,
      "危": 635,
      "即": 636,
      "却": 637,
      "卵": 638,
      "卷": 639,
      "卸": 640,
      "卿": 641,
      "厂": 642,
      "厄": 643,
      "厅": 644,
      "历": 645,
      "厉": 646,
      "压": 647,
      "厌": 648,
      "厕": 649,
      "厘": 650,
      "厚": 651,
      "原": 652,
      "厢": 653,
      "厥": 654,
      "厦": 655,
      "厨": 656,
      "厩": 657,
      "厮": 658,
      "去": 659,
      "县": 660,
      "叁": 661,
      "参": 662,
      "又": 663,
      "叉": 664,
      "及": 665,
      "友": 666,
      "双": 667,
      "反": 668,
      "収": 669,
      "发": 670,
      "叔": 671,
      "取": 672,
      "受": 673,
      "变": 674,
      "叙": 675,
      "叛": 676,
      "叟": 677,
      "叠": 678,
      "口": 679,
      "古": 680,
      "句": 681,
      "另": 682,
      "叨": 683,
      "叩": 684,
      "只": 685,
      "叫": 686,
      "召": 687,
      "叭": 688,
      "叮": 689,
      "可": 690,
      "台": 691,
      "叱": 692,
      "史": 693,
      "右": 694,
      "叵": 695,
      "叶": 696,
      "号": 697,
      "司": 698,
      "叹": 699,
      "叼": 700,
      "叽": 701,
      "吁": 702,
      "吃": 703,
      "各": 704,
      "吆": 705,
      "合": 706,
      "吉": 707,
      "吊": 708,
      "同": 709,
      "名": 710,
      "后": 711,
      "吏": 712,
      "吐": 713,
      "向": 714,
      "吒": 715,
      "吓": 716,
      "吕": 717,
      "吗": 718,
      "君": 719,
      "吝": 720,
      "吞": 721,
      "吟": 722,
      "吠": 723,
      "否": 724,
      "吧": 725,
      "吨": 726,
      "吩": 727,
      "含": 728,
      "听": 729,
      "吭": 730,
      "吮": 731,
      "启": 732,
      "吱": 733,
      "吴": 734,
      "吵": 735,
      "吸": 736,
      "吹": 737,
      "吻": 738,
      "吼": 739,
      "吾": 740,
      "呀": 741,
      "呃": 742,
      "呆": 743,
      "呈": 744,
      "告": 745,
      "呐": 746,
      "呓": 747,
      "呔": 748,
      "呕": 749,
      "呗": 750,
      "员": 751,
      "呛": 752,
      "呜": 753,
      "呢": 754,
      "呤": 755,
      "呦": 756,
      "周": 757,
      "呯": 758,
      "呱": 759,
      "呲": 760,
      "味": 761,
      "呵": 762,
      "呷": 763,
      "呸": 764,
      "呻": 765,
      "呼": 766,
      "命": 767,
      "咀": 768,
      "咂": 769,
      "咄": 770,
      "咆": 771,
      "咋": 772,
      "和": 773,
      "咎": 774,
      "咏": 775,
      "咐": 776,
      "咒": 777,
      "咔": 778,
      "咕": 779,
      "咖": 780,
      "咙": 781,
      "咚": 782,
      "咛": 783,
      "咝": 784,
      "咣": 785,
      "咤": 786,
      "咦": 787,
      "咧": 788,
      "咨": 789,
      "咩": 790,
      "咪": 791,
      "咫": 792,
      "咬": 793,
      "咯": 794,
      "咱": 795,
      "咳": 796,
      "咴": 797,
      "咸": 798,
      "咻": 799,
      "咽": 800,
      "咾": 801,
      "咿": 802,
      "哀": 803,
      "品": 804,
      "哂": 805,
      "哄": 806,
      "哆": 807,
      "哇": 808,
      "哈": 809,
      "哉": 810,
      "响": 811,
      "哎": 812,
      "哏": 813,
      "哐": 814,
      "哑": 815,
      "哒": 816,
      "哔": 817,
      "哗": 818,
      "哚": 819,
      "哞": 820,
      "哟": 821,
      "哥": 822,
      "哦": 823,
      "哧": 824,
      "哨": 825,
      "哩": 826,
      "哪": 827,
      "哭": 828,
      "哮": 829,
      "哲": 830,
      "哺": 831,
      "哼": 832,
      "哽": 833,
      "唆": 834,
      "唇": 835,
      "唉": 836,
      "唏": 837,
      "唐": 838,
      "唔": 839,
      "唠": 840,
      "唢": 841,
      "唤": 842,
      "唧": 843,
      "唬": 844,
      "售": 845,
      "唯": 846,
      "唰": 847,
      "唱": 848,
      "唳": 849,
      "唾": 850,
      "啃": 851,
      "啄": 852,
      "商": 853,
      "啉": 854,
      "啊": 855,
      "啐": 856,
      "啕": 857,
      "啜": 858,
      "啡": 859,
      "啤": 860,
      "啥": 861,
      "啦": 862,
      "啧": 863,
      "啪": 864,
      "啬": 865,
      "啮": 866,
      "啰": 867,
      "啵": 868,
      "啷": 869,
      "啸": 870,
      "啼": 871,
      "啾": 872,
      "喀": 873,
      "喂": 874,
      "喃": 875,
      "善": 876,
      "喇": 877,
      "喉": 878,
      "喊": 879,
      "喋": 880,
      "喏": 881,
      "喔": 882,
      "喘": 883,
      "喙": 884,
      "喜": 885,
      "喝": 886,
      "喟": 887,
      "喧": 888,
      "喱": 889,
      "喳": 890,
      "喵": 891,
      "喷": 892,
      "喻": 893,
      "喽": 894,
      "嗅": 895,
      "嗑": 896,
      "嗒": 897,
      "嗓": 898,
      "嗔": 899,
      "嗖": 900,
      "嗜": 901,
      "嗝": 902,
      "嗡": 903,
      "嗣": 904,
      "嗤": 905,
      "嗦": 906,
      "嗨": 907,
      "嗫": 908,
      "嗬": 909,
      "嗯": 910,
      "嗲": 911,
      "嗷": 912,
      "嗽": 913,
      "嘀": 914,
      "嘁": 915,
      "嘈": 916,
      "嘉": 917,
      "嘌": 918,
      "嘎": 919,
      "嘘": 920,
      "嘚": 921,
      "嘛": 922,
      "嘞": 923,
      "嘟": 924,
      "嘣": 925,
      "嘤": 926,
      "嘬": 927,
      "嘭": 928,
      "嘱": 929,
      "嘲": 930,
      "嘴": 931,
      "嘶": 932,
      "嘹": 933,
      "嘻": 934,
      "嘿": 935,
      "噌": 936,
      "噎": 937,
      "噔": 938,
      "噗": 939,
      "噘": 940,
      "噙": 941,
      "噜": 942,
      "噢": 943,
      "噤": 944,
      "器": 945,
      "噩": 946,
      "噪": 947,
      "噫": 948,
      "噬": 949,
      "噱": 950,
      "噹": 951,
      "噻": 952,
      "噼": 953,
      "嚅": 954,
      "嚎": 955,
      "嚏": 956,
      "嚓": 957,
      "嚣": 958,
      "嚯": 959,
      "嚷": 960,
      "嚼": 961,
      "囊": 962,
      "囔": 963,
      "囚": 964,
      "四": 965,
      "回": 966,
      "因": 967,
      "囡": 968,
      "团": 969,
      "囤": 970,
      "囫": 971,
      "园": 972,
      "困": 973,
      "囱": 974,
      "围": 975,
      "囵": 976,
      "囹": 977,
      "固": 978,
      "国": 979,
      "图": 980,
      "圃": 981,
      "圄": 982,
      "圆": 983,
      "圈": 984,
      "圜": 985,
      "土": 986,
      "圣": 987,
      "在": 988,
      "地": 989,
      "场": 990,
      "圾": 991,
      "址": 992,
      "坂": 993,
      "均": 994,
      "坊": 995,
      "坍": 996,
      "坎": 997,
      "坏": 998,
      "坐": 999,
      "坑": 1000,
      "块": 1001,
      "坚": 1002,
      "坛": 1003,
      "坝": 1004,
      "坞": 1005,
      "坟": 1006,
      "坠": 1007,
      "坡": 1008,
      "坤": 1009,
      "坦": 1010,
      "坨": 1011,
      "坩": 1012,
      "坪": 1013,
      "坯": 1014,
      "坳": 1015,
      "坷": 1016,
      "垂": 1017,
      "垃": 1018,
      "垄": 1019,
      "型": 1020,
      "垒": 1021,
      "垛": 1022,
      "垠": 1023,
      "垢": 1024,
      "垣": 1025,
      "垦": 1026,
      "垫": 1027,
      "垮": 1028,
      "埂": 1029,
      "埃": 1030,
      "埋": 1031,
      "城": 1032,
      "埔": 1033,
      "埚": 1034,
      "域": 1035,
      "培": 1036,
      "基": 1037,
      "堀": 1038,
      "堂": 1039,
      "堆": 1040,
      "堇": 1041,
      "堑": 1042,
      "堕": 1043,
      "堡": 1044,
      "堤": 1045,
      "堪": 1046,
      "堰": 1047,
      "堵": 1048,
      "塌": 1049,
      "塑": 1050,
      "塔": 1051,
      "塘": 1052,
      "塞": 1053,
      "填": 1054,
      "塵": 1055,
      "塾": 1056,
      "境": 1057,
      "墅": 1058,
      "墓": 1059,
      "墙": 1060,
      "增": 1061,
      "墟": 1062,
      "墨": 1063,
      "墩": 1064,
      "壁": 1065,
      "壑": 1066,
      "壕": 1067,
      "壤": 1068,
      "士": 1069,
      "壮": 1070,
      "声": 1071,
      "壳": 1072,
      "壶": 1073,
      "壹": 1074,
      "处": 1075,
      "备": 1076,
      "复": 1077,
      "夏": 1078,
      "夔": 1079,
      "夕": 1080,
      "外": 1081,
      "夙": 1082,
      "多": 1083,
      "夜": 1084,
      "够": 1085,
      "大": 1086,
      "天": 1087,
      "太": 1088,
      "夫": 1089,
      "夭": 1090,
      "央": 1091,
      "夯": 1092,
      "失": 1093,
      "头": 1094,
      "夷": 1095,
      "夸": 1096,
      "夹": 1097,
      "夺": 1098,
      "奂": 1099,
      "奄": 1100,
      "奇": 1101,
      "奈": 1102,
      "奉": 1103,
      "奋": 1104,
      "奏": 1105,
      "契": 1106,
      "奔": 1107,
      "奕": 1108,
      "奖": 1109,
      "套": 1110,
      "奚": 1111,
      "奠": 1112,
      "奢": 1113,
      "奥": 1114,
      "女": 1115,
      "奴": 1116,
      "奶": 1117,
      "奸": 1118,
      "她": 1119,
      "好": 1120,
      "如": 1121,
      "妃": 1122,
      "妄": 1123,
      "妆": 1124,
      "妇": 1125,
      "妈": 1126,
      "妊": 1127,
      "妒": 1128,
      "妓": 1129,
      "妖": 1130,
      "妙": 1131,
      "妞": 1132,
      "妣": 1133,
      "妤": 1134,
      "妥": 1135,
      "妨": 1136,
      "妩": 1137,
      "妮": 1138,
      "妹": 1139,
      "妻": 1140,
      "妾": 1141,
      "姆": 1142,
      "始": 1143,
      "姐": 1144,
      "姑": 1145,
      "姒": 1146,
      "姓": 1147,
      "委": 1148,
      "姗": 1149,
      "姘": 1150,
      "姜": 1151,
      "姣": 1152,
      "姤": 1153,
      "姥": 1154,
      "姨": 1155,
      "姬": 1156,
      "姻": 1157,
      "姿": 1158,
      "威": 1159,
      "娃": 1160,
      "娅": 1161,
      "娆": 1162,
      "娇": 1163,
      "娑": 1164,
      "娓": 1165,
      "娘": 1166,
      "娜": 1167,
      "娟": 1168,
      "娠": 1169,
      "娥": 1170,
      "娩": 1171,
      "娱": 1172,
      "娲": 1173,
      "娴": 1174,
      "娶": 1175,
      "娼": 1176,
      "婀": 1177,
      "婆": 1178,
      "婉": 1179,
      "婊": 1180,
      "婕": 1181,
      "婚": 1182,
      "婢": 1183,
      "婪": 1184,
      "婴": 1185,
      "婵": 1186,
      "婶": 1187,
      "婷": 1188,
      "婿": 1189,
      "媒": 1190,
      "媚": 1191,
      "媛": 1192,
      "媲": 1193,
      "媳": 1194,
      "嫁": 1195,
      "嫂": 1196,
      "嫉": 1197,
      "嫌": 1198,
      "嫔": 1199,
      "嫖": 1200,
      "嫡": 1201,
      "嫣": 1202,
      "嫦": 1203,
      "嫩": 1204,
      "嬉": 1205,
      "嬷": 1206,
      "孀": 1207,
      "子": 1208,
      "孑": 1209,
      "孔": 1210,
      "孕": 1211,
      "字": 1212,
      "存": 1213,
      "孙": 1214,
      "孜": 1215,
      "孝": 1216,
      "孟": 1217,
      "孢": 1218,
      "季": 1219,
      "孤": 1220,
      "学": 1221,
      "孩": 1222,
      "孪": 1223,
      "孬": 1224,
      "孰": 1225,
      "孱": 1226,
      "孵": 1227,
      "孺": 1228,
      "孽": 1229,
      "宁": 1230,
      "它": 1231,
      "宅": 1232,
      "宇": 1233,
      "守": 1234,
      "安": 1235,
      "宋": 1236,
      "完": 1237,
      "宏": 1238,
      "宕": 1239,
      "宗": 1240,
      "官": 1241,
      "宙": 1242,
      "定": 1243,
      "宛": 1244,
      "宜": 1245,
      "宝": 1246,
      "实": 1247,
      "宠": 1248,
      "审": 1249,
      "客": 1250,
      "宣": 1251,
      "室": 1252,
      "宦": 1253,
      "宪": 1254,
      "宫": 1255,
      "宮": 1256,
      "宰": 1257,
      "害": 1258,
      "宴": 1259,
      "宵": 1260,
      "家": 1261,
      "容": 1262,
      "宽": 1263,
      "宾": 1264,
      "宿": 1265,
      "寂": 1266,
      "寄": 1267,
      "寅": 1268,
      "密": 1269,
      "寇": 1270,
      "富": 1271,
      "寐": 1272,
      "寒": 1273,
      "寓": 1274,
      "寝": 1275,
      "寞": 1276,
      "察": 1277,
      "寡": 1278,
      "寥": 1279,
      "寨": 1280,
      "寰": 1281,
      "寸": 1282,
      "对": 1283,
      "寺": 1284,
      "寻": 1285,
      "导": 1286,
      "寿": 1287,
      "封": 1288,
      "射": 1289,
      "将": 1290,
      "尉": 1291,
      "尊": 1292,
      "小": 1293,
      "少": 1294,
      "尔": 1295,
      "尕": 1296,
      "尖": 1297,
      "尘": 1298,
      "尚": 1299,
      "尝": 1300,
      "尤": 1301,
      "尬": 1302,
      "就": 1303,
      "尴": 1304,
      "尸": 1305,
      "尹": 1306,
      "尺": 1307,
      "尼": 1308,
      "尽": 1309,
      "尾": 1310,
      "尿": 1311,
      "局": 1312,
      "屁": 1313,
      "层": 1314,
      "屃": 1315,
      "居": 1316,
      "屈": 1317,
      "屉": 1318,
      "届": 1319,
      "屋": 1320,
      "屌": 1321,
      "屎": 1322,
      "屏": 1323,
      "屐": 1324,
      "屑": 1325,
      "展": 1326,
      "属": 1327,
      "屠": 1328,
      "屡": 1329,
      "履": 1330,
      "屯": 1331,
      "山": 1332,
      "屹": 1333,
      "屿": 1334,
      "岁": 1335,
      "岂": 1336,
      "岌": 1337,
      "岐": 1338,
      "岔": 1339,
      "岖": 1340,
      "岗": 1341,
      "岚": 1342,
      "岛": 1343,
      "岩": 1344,
      "岭": 1345,
      "岳": 1346,
      "岸": 1347,
      "岿": 1348,
      "峋": 1349,
      "峙": 1350,
      "峡": 1351,
      "峥": 1352,
      "峦": 1353,
      "峨": 1354,
      "峭": 1355,
      "峰": 1356,
      "峻": 1357,
      "崂": 1358,
      "崇": 1359,
      "崎": 1360,
      "崔": 1361,
      "崖": 1362,
      "崛": 1363,
      "崩": 1364,
      "崭": 1365,
      "崴": 1366,
      "崽": 1367,
      "嵌": 1368,
      "嵘": 1369,
      "嵩": 1370,
      "嵬": 1371,
      "嶂": 1372,
      "嶙": 1373,
      "巅": 1374,
      "巍": 1375,
      "川": 1376,
      "州": 1377,
      "巡": 1378,
      "巢": 1379,
      "工": 1380,
      "左": 1381,
      "巧": 1382,
      "巨": 1383,
      "巩": 1384,
      "巫": 1385,
      "差": 1386,
      "己": 1387,
      "已": 1388,
      "巴": 1389,
      "巷": 1390,
      "巽": 1391,
      "巾": 1392,
      "币": 1393,
      "市": 1394,
      "布": 1395,
      "帅": 1396,
      "帆": 1397,
      "师": 1398,
      "希": 1399,
      "帐": 1400,
      "帔": 1401,
      "帕": 1402,
      "帖": 1403,
      "帘": 1404,
      "帚": 1405,
      "帛": 1406,
      "帜": 1407,
      "帝": 1408,
      "带": 1409,
      "帧": 1410,
      "席": 1411,
      "帮": 1412,
      "帰": 1413,
      "帷": 1414,
      "常": 1415,
      "帼": 1416,
      "帽": 1417,
      "幂": 1418,
      "幄": 1419,
      "幅": 1420,
      "幌": 1421,
      "幔": 1422,
      "幕": 1423,
      "幞": 1424,
      "幡": 1425,
      "幢": 1426,
      "干": 1427,
      "平": 1428,
      "年": 1429,
      "并": 1430,
      "幸": 1431,
      "幺": 1432,
      "幻": 1433,
      "幼": 1434,
      "幽": 1435,
      "广": 1436,
      "庄": 1437,
      "庆": 1438,
      "庇": 1439,
      "床": 1440,
      "序": 1441,
      "庐": 1442,
      "库": 1443,
      "应": 1444,
      "底": 1445,
      "庖": 1446,
      "店": 1447,
      "庙": 1448,
      "庚": 1449,
      "府": 1450,
      "庞": 1451,
      "废": 1452,
      "度": 1453,
      "座": 1454,
      "庭": 1455,
      "庶": 1456,
      "康": 1457,
      "庸": 1458,
      "廉": 1459,
      "廊": 1460,
      "廓": 1461,
      "延": 1462,
      "廷": 1463,
      "建": 1464,
      "开": 1465,
      "异": 1466,
      "弃": 1467,
      "弄": 1468,
      "弈": 1469,
      "弊": 1470,
      "弋": 1471,
      "式": 1472,
      "弑": 1473,
      "弓": 1474,
      "引": 1475,
      "弗": 1476,
      "弘": 1477,
      "弛": 1478,
      "弟": 1479,
      "张": 1480,
      "弥": 1481,
      "弦": 1482,
      "弧": 1483,
      "弩": 1484,
      "弭": 1485,
      "弯": 1486,
      "弱": 1487,
      "弹": 1488,
      "强": 1489,
      "归": 1490,
      "当": 1491,
      "录": 1492,
      "彗": 1493,
      "彘": 1494,
      "彝": 1495,
      "形": 1496,
      "彤": 1497,
      "彦": 1498,
      "彧": 1499,
      "彩": 1500,
      "彪": 1501,
      "彬": 1502,
      "彭": 1503,
      "彰": 1504,
      "影": 1505,
      "彷": 1506,
      "役": 1507,
      "彻": 1508,
      "彼": 1509,
      "往": 1510,
      "征": 1511,
      "径": 1512,
      "待": 1513,
      "徇": 1514,
      "很": 1515,
      "徉": 1516,
      "徊": 1517,
      "律": 1518,
      "後": 1519,
      "徐": 1520,
      "徒": 1521,
      "得": 1522,
      "徘": 1523,
      "徙": 1524,
      "徜": 1525,
      "御": 1526,
      "徨": 1527,
      "循": 1528,
      "徭": 1529,
      "微": 1530,
      "德": 1531,
      "徽": 1532,
      "心": 1533,
      "必": 1534,
      "忆": 1535,
      "忌": 1536,
      "忍": 1537,
      "忏": 1538,
      "忐": 1539,
      "忑": 1540,
      "忒": 1541,
      "忖": 1542,
      "志": 1543,
      "忘": 1544,
      "忙": 1545,
      "忠": 1546,
      "忡": 1547,
      "忤": 1548,
      "忧": 1549,
      "忪": 1550,
      "快": 1551,
      "忱": 1552,
      "念": 1553,
      "忻": 1554,
      "忽": 1555,
      "忾": 1556,
      "忿": 1557,
      "怀": 1558,
      "态": 1559,
      "怂": 1560,
      "怄": 1561,
      "怅": 1562,
      "怆": 1563,
      "怎": 1564,
      "怏": 1565,
      "怒": 1566,
      "怔": 1567,
      "怕": 1568,
      "怖": 1569,
      "怛": 1570,
      "怜": 1571,
      "思": 1572,
      "怠": 1573,
      "怡": 1574,
      "急": 1575,
      "怦": 1576,
      "性": 1577,
      "怨": 1578,
      "怪": 1579,
      "怯": 1580,
      "怵": 1581,
      "总": 1582,
      "怼": 1583,
      "恁": 1584,
      "恃": 1585,
      "恋": 1586,
      "恍": 1587,
      "恐": 1588,
      "恒": 1589,
      "恕": 1590,
      "恙": 1591,
      "恢": 1592,
      "恣": 1593,
      "恤": 1594,
      "恨": 1595,
      "恩": 1596,
      "恪": 1597,
      "恬": 1598,
      "恭": 1599,
      "息": 1600,
      "恰": 1601,
      "恳": 1602,
      "恶": 1603,
      "恸": 1604,
      "恹": 1605,
      "恻": 1606,
      "恼": 1607,
      "恿": 1608,
      "悄": 1609,
      "悉": 1610,
      "悍": 1611,
      "悔": 1612,
      "悖": 1613,
      "悚": 1614,
      "悟": 1615,
      "悠": 1616,
      "患": 1617,
      "悦": 1618,
      "您": 1619,
      "悬": 1620,
      "悯": 1621,
      "悱": 1622,
      "悲": 1623,
      "悴": 1624,
      "悸": 1625,
      "悻": 1626,
      "悼": 1627,
      "情": 1628,
      "惆": 1629,
      "惊": 1630,
      "惋": 1631,
      "惑": 1632,
      "惕": 1633,
      "惘": 1634,
      "惚": 1635,
      "惜": 1636,
      "惟": 1637,
      "惠": 1638,
      "惦": 1639,
      "惧": 1640,
      "惨": 1641,
      "惩": 1642,
      "惫": 1643,
      "惬": 1644,
      "惭": 1645,
      "惮": 1646,
      "惯": 1647,
      "惰": 1648,
      "想": 1649,
      "惴": 1650,
      "惶": 1651,
      "惹": 1652,
      "惺": 1653,
      "愁": 1654,
      "愈": 1655,
      "愉": 1656,
      "愎": 1657,
      "意": 1658,
      "愕": 1659,
      "愚": 1660,
      "感": 1661,
      "愠": 1662,
      "愣": 1663,
      "愤": 1664,
      "愧": 1665,
      "愫": 1666,
      "愿": 1667,
      "慈": 1668,
      "慌": 1669,
      "慎": 1670,
      "慑": 1671,
      "慕": 1672,
      "慢": 1673,
      "慧": 1674,
      "慨": 1675,
      "慰": 1676,
      "慵": 1677,
      "慶": 1678,
      "慷": 1679,
      "憋": 1680,
      "憎": 1681,
      "憔": 1682,
      "憧": 1683,
      "憨": 1684,
      "憩": 1685,
      "憬": 1686,
      "憷": 1687,
      "憾": 1688,
      "懂": 1689,
      "懈": 1690,
      "懊": 1691,
      "懑": 1692,
      "懒": 1693,
      "懦": 1694,
      "懵": 1695,
      "戈": 1696,
      "戌": 1697,
      "戍": 1698,
      "戎": 1699,
      "戏": 1700,
      "成": 1701,
      "我": 1702,
      "戒": 1703,
      "或": 1704,
      "战": 1705,
      "戚": 1706,
      "戛": 1707,
      "戟": 1708,
      "截": 1709,
      "戮": 1710,
      "戲": 1711,
      "戳": 1712,
      "戴": 1713,
      "户": 1714,
      "戾": 1715,
      "房": 1716,
      "所": 1717,
      "扁": 1718,
      "扇": 1719,
      "扈": 1720,
      "扉": 1721,
      "手": 1722,
      "扌": 1723,
      "才": 1724,
      "扎": 1725,
      "扐": 1726,
      "扑": 1727,
      "扒": 1728,
      "打": 1729,
      "扔": 1730,
      "托": 1731,
      "扛": 1732,
      "扣": 1733,
      "扦": 1734,
      "执": 1735,
      "扩": 1736,
      "扪": 1737,
      "扫": 1738,
      "扬": 1739,
      "扭": 1740,
      "扮": 1741,
      "扯": 1742,
      "扰": 1743,
      "扳": 1744,
      "扶": 1745,
      "批": 1746,
      "扼": 1747,
      "找": 1748,
      "承": 1749,
      "技": 1750,
      "抄": 1751,
      "抉": 1752,
      "把": 1753,
      "抑": 1754,
      "抒": 1755,
      "抓": 1756,
      "投": 1757,
      "抖": 1758,
      "抗": 1759,
      "折": 1760,
      "抚": 1761,
      "抛": 1762,
      "抠": 1763,
      "抡": 1764,
      "抢": 1765,
      "护": 1766,
      "报": 1767,
      "抨": 1768,
      "披": 1769,
      "抬": 1770,
      "抱": 1771,
      "抵": 1772,
      "抹": 1773,
      "抻": 1774,
      "押": 1775,
      "抽": 1776,
      "抿": 1777,
      "拂": 1778,
      "拄": 1779,
      "担": 1780,
      "拆": 1781,
      "拇": 1782,
      "拈": 1783,
      "拉": 1784,
      "拌": 1785,
      "拍": 1786,
      "拎": 1787,
      "拐": 1788,
      "拒": 1789,
      "拓": 1790,
      "拔": 1791,
      "拖": 1792,
      "拗": 1793,
      "拘": 1794,
      "拙": 1795,
      "招": 1796,
      "拜": 1797,
      "拟": 1798,
      "拢": 1799,
      "拣": 1800,
      "拤": 1801,
      "拥": 1802,
      "拦": 1803,
      "拧": 1804,
      "拨": 1805,
      "择": 1806,
      "括": 1807,
      "拭": 1808,
      "拮": 1809,
      "拯": 1810,
      "拱": 1811,
      "拳": 1812,
      "拴": 1813,
      "拷": 1814,
      "拼": 1815,
      "拽": 1816,
      "拾": 1817,
      "拿": 1818,
      "持": 1819,
      "挂": 1820,
      "指": 1821,
      "按": 1822,
      "挎": 1823,
      "挑": 1824,
      "挖": 1825,
      "挚": 1826,
      "挛": 1827,
      "挞": 1828,
      "挟": 1829,
      "挠": 1830,
      "挡": 1831,
      "挣": 1832,
      "挤": 1833,
      "挥": 1834,
      "挨": 1835,
      "挪": 1836,
      "挫": 1837,
      "振": 1838,
      "挲": 1839,
      "挺": 1840,
      "挽": 1841,
      "捂": 1842,
      "捅": 1843,
      "捆": 1844,
      "捉": 1845,
      "捋": 1846,
      "捍": 1847,
      "捎": 1848,
      "捏": 1849,
      "捐": 1850,
      "捕": 1851,
      "捞": 1852,
      "损": 1853,
      "捡": 1854,
      "换": 1855,
      "捣": 1856,
      "捧": 1857,
      "捭": 1858,
      "据": 1859,
      "捱": 1860,
      "捶": 1861,
      "捷": 1862,
      "捺": 1863,
      "捻": 1864,
      "掀": 1865,
      "掂": 1866,
      "掇": 1867,
      "授": 1868,
      "掉": 1869,
      "掌": 1870,
      "掎": 1871,
      "掏": 1872,
      "掐": 1873,
      "排": 1874,
      "掖": 1875,
      "掘": 1876,
      "掠": 1877,
      "探": 1878,
      "掣": 1879,
      "接": 1880,
      "控": 1881,
      "推": 1882,
      "掩": 1883,
      "措": 1884,
      "掬": 1885,
      "掰": 1886,
      "掳": 1887,
      "掴": 1888,
      "掷": 1889,
      "掸": 1890,
      "掺": 1891,
      "掼": 1892,
      "揄": 1893,
      "揉": 1894,
      "揍": 1895,
      "描": 1896,
      "提": 1897,
      "插": 1898,
      "揖": 1899,
      "握": 1900,
      "揣": 1901,
      "揦": 1902,
      "揩": 1903,
      "揪": 1904,
      "揭": 1905,
      "揲": 1906,
      "援": 1907,
      "揶": 1908,
      "揽": 1909,
      "搀": 1910,
      "搁": 1911,
      "搂": 1912,
      "搅": 1913,
      "搏": 1914,
      "搐": 1915,
      "搓": 1916,
      "搔": 1917,
      "搜": 1918,
      "搞": 1919,
      "搡": 1920,
      "搧": 1921,
      "搪": 1922,
      "搬": 1923,
      "搭": 1924,
      "携": 1925,
      "摁": 1926,
      "摄": 1927,
      "摆": 1928,
      "摇": 1929,
      "摊": 1930,
      "摒": 1931,
      "摔": 1932,
      "摘": 1933,
      "摞": 1934,
      "摧": 1935,
      "摩": 1936,
      "摸": 1937,
      "摹": 1938,
      "撂": 1939,
      "撅": 1940,
      "撇": 1941,
      "撑": 1942,
      "撒": 1943,
      "撕": 1944,
      "撞": 1945,
      "撤": 1946,
      "撩": 1947,
      "撬": 1948,
      "播": 1949,
      "撮": 1950,
      "撰": 1951,
      "撵": 1952,
      "撷": 1953,
      "撸": 1954,
      "撺": 1955,
      "撼": 1956,
      "擀": 1957,
      "擂": 1958,
      "擅": 1959,
      "操": 1960,
      "擎": 1961,
      "擒": 1962,
      "擘": 1963,
      "擞": 1964,
      "擤": 1965,
      "擦": 1966,
      "攀": 1967,
      "攒": 1968,
      "攘": 1969,
      "攥": 1970,
      "攫": 1971,
      "支": 1972,
      "收": 1973,
      "攸": 1974,
      "改": 1975,
      "攻": 1976,
      "放": 1977,
      "政": 1978,
      "故": 1979,
      "效": 1980,
      "敌": 1981,
      "敏": 1982,
      "救": 1983,
      "敕": 1984,
      "教": 1985,
      "敛": 1986,
      "敝": 1987,
      "敞": 1988,
      "敢": 1989,
      "散": 1990,
      "敦": 1991,
      "敬": 1992,
      "数": 1993,
      "敲": 1994,
      "整": 1995,
      "敷": 1996,
      "文": 1997,
      "斋": 1998,
      "斐": 1999,
      "斑": 2000,
      "斓": 2001,
      "斗": 2002,
      "料": 2003,
      "斜": 2004,
      "斟": 2005,
      "斡": 2006,
      "斤": 2007,
      "斥": 2008,
      "斧": 2009,
      "斩": 2010,
      "断": 2011,
      "斯": 2012,
      "新": 2013,
      "方": 2014,
      "施": 2015,
      "旁": 2016,
      "旅": 2017,
      "旋": 2018,
      "旌": 2019,
      "旎": 2020,
      "族": 2021,
      "旖": 2022,
      "旗": 2023,
      "无": 2024,
      "既": 2025,
      "日": 2026,
      "旦": 2027,
      "旧": 2028,
      "旨": 2029,
      "早": 2030,
      "旬": 2031,
      "旭": 2032,
      "旮": 2033,
      "旯": 2034,
      "旱": 2035,
      "时": 2036,
      "旷": 2037,
      "旺": 2038,
      "昂": 2039,
      "昆": 2040,
      "昊": 2041,
      "昌": 2042,
      "明": 2043,
      "昏": 2044,
      "易": 2045,
      "昔": 2046,
      "昙": 2047,
      "星": 2048,
      "映": 2049,
      "春": 2050,
      "昧": 2051,
      "昨": 2052,
      "昭": 2053,
      "是": 2054,
      "昵": 2055,
      "昼": 2056,
      "显": 2057,
      "晃": 2058,
      "晋": 2059,
      "晌": 2060,
      "晏": 2061,
      "晒": 2062,
      "晓": 2063,
      "晕": 2064,
      "晖": 2065,
      "晗": 2066,
      "晚": 2067,
      "晤": 2068,
      "晦": 2069,
      "晨": 2070,
      "普": 2071,
      "景": 2072,
      "晰": 2073,
      "晴": 2074,
      "晶": 2075,
      "晷": 2076,
      "智": 2077,
      "晾": 2078,
      "暂": 2079,
      "暄": 2080,
      "暇": 2081,
      "暑": 2082,
      "暖": 2083,
      "暗": 2084,
      "暧": 2085,
      "暮": 2086,
      "暴": 2087,
      "暹": 2088,
      "曙": 2089,
      "曜": 2090,
      "曝": 2091,
      "曦": 2092,
      "曰": 2093,
      "曲": 2094,
      "曳": 2095,
      "更": 2096,
      "曹": 2097,
      "曼": 2098,
      "曾": 2099,
      "替": 2100,
      "最": 2101,
      "月": 2102,
      "有": 2103,
      "朋": 2104,
      "服": 2105,
      "朔": 2106,
      "朕": 2107,
      "朗": 2108,
      "望": 2109,
      "朝": 2110,
      "期": 2111,
      "朦": 2112,
      "木": 2113,
      "未": 2114,
      "末": 2115,
      "本": 2116,
      "札": 2117,
      "术": 2118,
      "朱": 2119,
      "朴": 2120,
      "朵": 2121,
      "机": 2122,
      "朽": 2123,
      "杀": 2124,
      "杂": 2125,
      "权": 2126,
      "杆": 2127,
      "杈": 2128,
      "杉": 2129,
      "李": 2130,
      "杏": 2131,
      "材": 2132,
      "村": 2133,
      "杖": 2134,
      "杜": 2135,
      "杞": 2136,
      "束": 2137,
      "杠": 2138,
      "条": 2139,
      "来": 2140,
      "杨": 2141,
      "杭": 2142,
      "杯": 2143,
      "杰": 2144,
      "杳": 2145,
      "杵": 2146,
      "杷": 2147,
      "松": 2148,
      "板": 2149,
      "极": 2150,
      "构": 2151,
      "枇": 2152,
      "枉": 2153,
      "析": 2154,
      "枕": 2155,
      "林": 2156,
      "枚": 2157,
      "果": 2158,
      "枝": 2159,
      "枞": 2160,
      "枢": 2161,
      "枣": 2162,
      "枪": 2163,
      "枫": 2164,
      "枭": 2165,
      "枯": 2166,
      "枳": 2167,
      "架": 2168,
      "枷": 2169,
      "枸": 2170,
      "柄": 2171,
      "柏": 2172,
      "某": 2173,
      "柑": 2174,
      "柒": 2175,
      "染": 2176,
      "柔": 2177,
      "柚": 2178,
      "柜": 2179,
      "柠": 2180,
      "查": 2181,
      "柬": 2182,
      "柯": 2183,
      "柱": 2184,
      "柲": 2185,
      "柳": 2186,
      "柴": 2187,
      "柿": 2188,
      "栀": 2189,
      "栅": 2190,
      "标": 2191,
      "栈": 2192,
      "栉": 2193,
      "栊": 2194,
      "栋": 2195,
      "栏": 2196,
      "树": 2197,
      "栓": 2198,
      "栖": 2199,
      "栗": 2200,
      "校": 2201,
      "栩": 2202,
      "株": 2203,
      "栲": 2204,
      "样": 2205,
      "核": 2206,
      "根": 2207,
      "格": 2208,
      "栽": 2209,
      "栾": 2210,
      "桀": 2211,
      "桂": 2212,
      "桃": 2213,
      "桄": 2214,
      "桅": 2215,
      "框": 2216,
      "案": 2217,
      "桉": 2218,
      "桌": 2219,
      "桎": 2220,
      "桐": 2221,
      "桑": 2222,
      "桔": 2223,
      "桠": 2224,
      "桡": 2225,
      "档": 2226,
      "桥": 2227,
      "桦": 2228,
      "桨": 2229,
      "桩": 2230,
      "桶": 2231,
      "梁": 2232,
      "梅": 2233,
      "梆": 2234,
      "梏": 2235,
      "梓": 2236,
      "梗": 2237,
      "梢": 2238,
      "梦": 2239,
      "梧": 2240,
      "梨": 2241,
      "梭": 2242,
      "梯": 2243,
      "械": 2244,
      "梳": 2245,
      "梵": 2246,
      "检": 2247,
      "棂": 2248,
      "棉": 2249,
      "棋": 2250,
      "棍": 2251,
      "棒": 2252,
      "棕": 2253,
      "棘": 2254,
      "棚": 2255,
      "棠": 2256,
      "棣": 2257,
      "森": 2258,
      "棱": 2259,
      "棵": 2260,
      "棺": 2261,
      "椁": 2262,
      "椅": 2263,
      "椆": 2264,
      "植": 2265,
      "椎": 2266,
      "椒": 2267,
      "椟": 2268,
      "椭": 2269,
      "椰": 2270,
      "楂": 2271,
      "楔": 2272,
      "楚": 2273,
      "楞": 2274,
      "楠": 2275,
      "楣": 2276,
      "楷": 2277,
      "楼": 2278,
      "概": 2279,
      "榄": 2280,
      "榆": 2281,
      "榈": 2282,
      "榔": 2283,
      "榕": 2284,
      "榛": 2285,
      "榜": 2286,
      "榨": 2287,
      "榫": 2288,
      "榴": 2289,
      "榷": 2290,
      "榻": 2291,
      "槁": 2292,
      "槃": 2293,
      "槊": 2294,
      "槌": 2295,
      "槎": 2296,
      "槐": 2297,
      "様": 2298,
      "槛": 2299,
      "槟": 2300,
      "槽": 2301,
      "槿": 2302,
      "樟": 2303,
      "模": 2304,
      "横": 2305,
      "樱": 2306,
      "樵": 2307,
      "樽": 2308,
      "橄": 2309,
      "橇": 2310,
      "橘": 2311,
      "橙": 2312,
      "橡": 2313,
      "橱": 2314,
      "橹": 2315,
      "橼": 2316,
      "檀": 2317,
      "檐": 2318,
      "檬": 2319,
      "欠": 2320,
      "次": 2321,
      "欢": 2322,
      "欣": 2323,
      "欧": 2324,
      "欲": 2325,
      "欸": 2326,
      "欺": 2327,
      "款": 2328,
      "歇": 2329,
      "歉": 2330,
      "歌": 2331,
      "止": 2332,
      "正": 2333,
      "此": 2334,
      "步": 2335,
      "武": 2336,
      "歧": 2337,
      "歪": 2338,
      "歹": 2339,
      "死": 2340,
      "歼": 2341,
      "殂": 2342,
      "殃": 2343,
      "殄": 2344,
      "殆": 2345,
      "殇": 2346,
      "殉": 2347,
      "殊": 2348,
      "残": 2349,
      "殒": 2350,
      "殓": 2351,
      "殖": 2352,
      "殚": 2353,
      "殡": 2354,
      "殴": 2355,
      "段": 2356,
      "殷": 2357,
      "殿": 2358,
      "毁": 2359,
      "毂": 2360,
      "毅": 2361,
      "毋": 2362,
      "母": 2363,
      "毎": 2364,
      "每": 2365,
      "毒": 2366,
      "毓": 2367,
      "比": 2368,
      "毕": 2369,
      "毗": 2370,
      "毙": 2371,
      "毛": 2372,
      "毡": 2373,
      "毫": 2374,
      "毯": 2375,
      "毽": 2376,
      "氅": 2377,
      "氏": 2378,
      "民": 2379,
      "氓": 2380,
      "气": 2381,
      "氚": 2382,
      "氛": 2383,
      "氢": 2384,
      "氤": 2385,
      "氧": 2386,
      "氨": 2387,
      "氪": 2388,
      "氮": 2389,
      "氰": 2390,
      "氲": 2391,
      "水": 2392,
      "永": 2393,
      "汀": 2394,
      "汁": 2395,
      "求": 2396,
      "汇": 2397,
      "汉": 2398,
      "汐": 2399,
      "汗": 2400,
      "汛": 2401,
      "汝": 2402,
      "江": 2403,
      "池": 2404,
      "污": 2405,
      "汤": 2406,
      "汩": 2407,
      "汪": 2408,
      "汰": 2409,
      "汲": 2410,
      "汶": 2411,
      "汹": 2412,
      "汽": 2413,
      "汾": 2414,
      "沁": 2415,
      "沃": 2416,
      "沈": 2417,
      "沉": 2418,
      "沌": 2419,
      "沏": 2420,
      "沐": 2421,
      "沓": 2422,
      "沙": 2423,
      "沛": 2424,
      "沟": 2425,
      "没": 2426,
      "沢": 2427,
      "沤": 2428,
      "沥": 2429,
      "沦": 2430,
      "沧": 2431,
      "沪": 2432,
      "沫": 2433,
      "沮": 2434,
      "沱": 2435,
      "河": 2436,
      "沸": 2437,
      "油": 2438,
      "治": 2439,
      "沼": 2440,
      "沽": 2441,
      "沾": 2442,
      "沿": 2443,
      "泄": 2444,
      "泅": 2445,
      "泉": 2446,
      "泊": 2447,
      "泌": 2448,
      "泓": 2449,
      "法": 2450,
      "泗": 2451,
      "泛": 2452,
      "泞": 2453,
      "泠": 2454,
      "泡": 2455,
      "波": 2456,
      "泣": 2457,
      "泥": 2458,
      "注": 2459,
      "泪": 2460,
      "泫": 2461,
      "泯": 2462,
      "泰": 2463,
      "泱": 2464,
      "泳": 2465,
      "泵": 2466,
      "泻": 2467,
      "泼": 2468,
      "泽": 2469,
      "泾": 2470,
      "洁": 2471,
      "洋": 2472,
      "洌": 2473,
      "洒": 2474,
      "洗": 2475,
      "洙": 2476,
      "洛": 2477,
      "洞": 2478,
      "津": 2479,
      "洪": 2480,
      "洱": 2481,
      "洲": 2482,
      "活": 2483,
      "洼": 2484,
      "洽": 2485,
      "派": 2486,
      "流": 2487,
      "浃": 2488,
      "浅": 2489,
      "浆": 2490,
      "浇": 2491,
      "浊": 2492,
      "测": 2493,
      "济": 2494,
      "浏": 2495,
      "浑": 2496,
      "浒": 2497,
      "浓": 2498,
      "浙": 2499,
      "浣": 2500,
      "浦": 2501,
      "浩": 2502,
      "浪": 2503,
      "浮": 2504,
      "浴": 2505,
      "海": 2506,
      "浸": 2507,
      "涂": 2508,
      "涅": 2509,
      "消": 2510,
      "涉": 2511,
      "涌": 2512,
      "涎": 2513,
      "涓": 2514,
      "涔": 2515,
      "涕": 2516,
      "涛": 2517,
      "涝": 2518,
      "涟": 2519,
      "涡": 2520,
      "涣": 2521,
      "涤": 2522,
      "润": 2523,
      "涧": 2524,
      "涨": 2525,
      "涩": 2526,
      "涮": 2527,
      "涯": 2528,
      "液": 2529,
      "涵": 2530,
      "涸": 2531,
      "淀": 2532,
      "淅": 2533,
      "淆": 2534,
      "淇": 2535,
      "淋": 2536,
      "淌": 2537,
      "淑": 2538,
      "淘": 2539,
      "淙": 2540,
      "淡": 2541,
      "淤": 2542,
      "淦": 2543,
      "淫": 2544,
      "淬": 2545,
      "淮": 2546,
      "深": 2547,
      "淳": 2548,
      "混": 2549,
      "淹": 2550,
      "添": 2551,
      "淼": 2552,
      "清": 2553,
      "渊": 2554,
      "渍": 2555,
      "渎": 2556,
      "渐": 2557,
      "渑": 2558,
      "渔": 2559,
      "渗": 2560,
      "渝": 2561,
      "渟": 2562,
      "渠": 2563,
      "渡": 2564,
      "渣": 2565,
      "渥": 2566,
      "温": 2567,
      "渭": 2568,
      "港": 2569,
      "渲": 2570,
      "渴": 2571,
      "游": 2572,
      "渺": 2573,
      "湃": 2574,
      "湍": 2575,
      "湎": 2576,
      "湖": 2577,
      "湛": 2578,
      "湮": 2579,
      "湾": 2580,
      "湿": 2581,
      "溃": 2582,
      "溅": 2583,
      "溉": 2584,
      "源": 2585,
      "溘": 2586,
      "溜": 2587,
      "溢": 2588,
      "溪": 2589,
      "溯": 2590,
      "溶": 2591,
      "溺": 2592,
      "滂": 2593,
      "滇": 2594,
      "滋": 2595,
      "滑": 2596,
      "滓": 2597,
      "滔": 2598,
      "滕": 2599,
      "滚": 2600,
      "滞": 2601,
      "满": 2602,
      "滤": 2603,
      "滥": 2604,
      "滨": 2605,
      "滩": 2606,
      "滴": 2607,
      "漂": 2608,
      "漆": 2609,
      "漉": 2610,
      "漏": 2611,
      "漓": 2612,
      "演": 2613,
      "漠": 2614,
      "漩": 2615,
      "漪": 2616,
      "漫": 2617,
      "漱": 2618,
      "漾": 2619,
      "潆": 2620,
      "潇": 2621,
      "潘": 2622,
      "潜": 2623,
      "潢": 2624,
      "潦": 2625,
      "潭": 2626,
      "潮": 2627,
      "潸": 2628,
      "潺": 2629,
      "澄": 2630,
      "澈": 2631,
      "澎": 2632,
      "澜": 2633,
      "澡": 2634,
      "澳": 2635,
      "激": 2636,
      "濒": 2637,
      "濛": 2638,
      "濡": 2639,
      "瀍": 2640,
      "瀑": 2641,
      "瀚": 2642,
      "灌": 2643,
      "火": 2644,
      "灬": 2645,
      "灭": 2646,
      "灯": 2647,
      "灰": 2648,
      "灵": 2649,
      "灶": 2650,
      "灸": 2651,
      "灼": 2652,
      "灾": 2653,
      "灿": 2654,
      "炀": 2655,
      "炉": 2656,
      "炊": 2657,
      "炎": 2658,
      "炒": 2659,
      "炕": 2660,
      "炖": 2661,
      "炙": 2662,
      "炫": 2663,
      "炬": 2664,
      "炭": 2665,
      "炮": 2666,
      "炯": 2667,
      "炳": 2668,
      "炸": 2669,
      "点": 2670,
      "炼": 2671,
      "炽": 2672,
      "烁": 2673,
      "烂": 2674,
      "烃": 2675,
      "烈": 2676,
      "烊": 2677,
      "烘": 2678,
      "烙": 2679,
      "烛": 2680,
      "烜": 2681,
      "烟": 2682,
      "烤": 2683,
      "烦": 2684,
      "烧": 2685,
      "烩": 2686,
      "烫": 2687,
      "烬": 2688,
      "热": 2689,
      "烷": 2690,
      "烹": 2691,
      "焉": 2692,
      "焊": 2693,
      "焐": 2694,
      "焕": 2695,
      "焖": 2696,
      "焗": 2697,
      "焙": 2698,
      "焚": 2699,
      "焦": 2700,
      "焰": 2701,
      "焱": 2702,
      "然": 2703,
      "煅": 2704,
      "煊": 2705,
      "煌": 2706,
      "煎": 2707,
      "煞": 2708,
      "煤": 2709,
      "煦": 2710,
      "照": 2711,
      "煨": 2712,
      "煮": 2713,
      "煲": 2714,
      "煳": 2715,
      "煸": 2716,
      "煽": 2717,
      "熄": 2718,
      "熊": 2719,
      "熏": 2720,
      "熔": 2721,
      "熙": 2722,
      "熟": 2723,
      "熠": 2724,
      "熨": 2725,
      "熬": 2726,
      "熵": 2727,
      "燃": 2728,
      "燎": 2729,
      "燕": 2730,
      "燚": 2731,
      "燥": 2732,
      "爆": 2733,
      "爪": 2734,
      "爬": 2735,
      "爱": 2736,
      "爵": 2737,
      "父": 2738,
      "爷": 2739,
      "爸": 2740,
      "爹": 2741,
      "爽": 2742,
      "片": 2743,
      "版": 2744,
      "牌": 2745,
      "牍": 2746,
      "牒": 2747,
      "牙": 2748,
      "牛": 2749,
      "牟": 2750,
      "牡": 2751,
      "牢": 2752,
      "牦": 2753,
      "牧": 2754,
      "物": 2755,
      "牲": 2756,
      "牵": 2757,
      "特": 2758,
      "牺": 2759,
      "犀": 2760,
      "犁": 2761,
      "犄": 2762,
      "犊": 2763,
      "犒": 2764,
      "犟": 2765,
      "犬": 2766,
      "犯": 2767,
      "犰": 2768,
      "状": 2769,
      "犷": 2770,
      "犸": 2771,
      "犹": 2772,
      "狂": 2773,
      "狄": 2774,
      "狈": 2775,
      "狍": 2776,
      "狐": 2777,
      "狒": 2778,
      "狗": 2779,
      "狙": 2780,
      "狞": 2781,
      "狠": 2782,
      "狡": 2783,
      "狩": 2784,
      "独": 2785,
      "狭": 2786,
      "狮": 2787,
      "狰": 2788,
      "狱": 2789,
      "狳": 2790,
      "狷": 2791,
      "狸": 2792,
      "狼": 2793,
      "猁": 2794,
      "猎": 2795,
      "猕": 2796,
      "猖": 2797,
      "猛": 2798,
      "猜": 2799,
      "猝": 2800,
      "猞": 2801,
      "猡": 2802,
      "猥": 2803,
      "猩": 2804,
      "猪": 2805,
      "猫": 2806,
      "猬": 2807,
      "献": 2808,
      "猱": 2809,
      "猴": 2810,
      "猹": 2811,
      "猾": 2812,
      "猿": 2813,
      "獐": 2814,
      "獗": 2815,
      "獠": 2816,
      "獭": 2817,
      "獾": 2818,
      "玄": 2819,
      "率": 2820,
      "玉": 2821,
      "王": 2822,
      "玛": 2823,
      "玠": 2824,
      "玩": 2825,
      "玫": 2826,
      "玮": 2827,
      "环": 2828,
      "现": 2829,
      "玲": 2830,
      "玷": 2831,
      "玺": 2832,
      "玻": 2833,
      "珀": 2834,
      "珊": 2835,
      "珍": 2836,
      "珐": 2837,
      "珑": 2838,
      "珞": 2839,
      "珠": 2840,
      "珩": 2841,
      "班": 2842,
      "球": 2843,
      "琅": 2844,
      "理": 2845,
      "琉": 2846,
      "琐": 2847,
      "琛": 2848,
      "琢": 2849,
      "琥": 2850,
      "琦": 2851,
      "琨": 2852,
      "琪": 2853,
      "琯": 2854,
      "琳": 2855,
      "琴": 2856,
      "琵": 2857,
      "琶": 2858,
      "琼": 2859,
      "瑕": 2860,
      "瑙": 2861,
      "瑚": 2862,
      "瑜": 2863,
      "瑞": 2864,
      "瑟": 2865,
      "瑰": 2866,
      "璀": 2867,
      "璃": 2868,
      "璜": 2869,
      "璞": 2870,
      "璧": 2871,
      "璨": 2872,
      "瓜": 2873,
      "瓢": 2874,
      "瓣": 2875,
      "瓤": 2876,
      "瓦": 2877,
      "瓮": 2878,
      "瓶": 2879,
      "瓷": 2880,
      "甄": 2881,
      "甘": 2882,
      "甚": 2883,
      "甜": 2884,
      "生": 2885,
      "甥": 2886,
      "用": 2887,
      "甩": 2888,
      "甫": 2889,
      "甬": 2890,
      "甭": 2891,
      "田": 2892,
      "由": 2893,
      "甲": 2894,
      "申": 2895,
      "电": 2896,
      "男": 2897,
      "甸": 2898,
      "町": 2899,
      "画": 2900,
      "畅": 2901,
      "界": 2902,
      "畏": 2903,
      "畔": 2904,
      "留": 2905,
      "畜": 2906,
      "略": 2907,
      "番": 2908,
      "畴": 2909,
      "畸": 2910,
      "疆": 2911,
      "疏": 2912,
      "疑": 2913,
      "疗": 2914,
      "疙": 2915,
      "疚": 2916,
      "疟": 2917,
      "疡": 2918,
      "疤": 2919,
      "疫": 2920,
      "疮": 2921,
      "疯": 2922,
      "疲": 2923,
      "疵": 2924,
      "疹": 2925,
      "疼": 2926,
      "疾": 2927,
      "痂": 2928,
      "病": 2929,
      "症": 2930,
      "痉": 2931,
      "痊": 2932,
      "痍": 2933,
      "痒": 2934,
      "痔": 2935,
      "痕": 2936,
      "痘": 2937,
      "痛": 2938,
      "痞": 2939,
      "痢": 2940,
      "痣": 2941,
      "痧": 2942,
      "痨": 2943,
      "痪": 2944,
      "痰": 2945,
      "痱": 2946,
      "痴": 2947,
      "痹": 2948,
      "痿": 2949,
      "瘀": 2950,
      "瘁": 2951,
      "瘆": 2952,
      "瘙": 2953,
      "瘟": 2954,
      "瘠": 2955,
      "瘤": 2956,
      "瘦": 2957,
      "瘩": 2958,
      "瘪": 2959,
      "瘫": 2960,
      "瘴": 2961,
      "瘸": 2962,
      "瘾": 2963,
      "癌": 2964,
      "癔": 2965,
      "癖": 2966,
      "癞": 2967,
      "癣": 2968,
      "癫": 2969,
      "登": 2970,
      "白": 2971,
      "百": 2972,
      "皂": 2973,
      "的": 2974,
      "皆": 2975,
      "皇": 2976,
      "皈": 2977,
      "皎": 2978,
      "皑": 2979,
      "皓": 2980,
      "皙": 2981,
      "皮": 2982,
      "皱": 2983,
      "皲": 2984,
      "皿": 2985,
      "盂": 2986,
      "盅": 2987,
      "盆": 2988,
      "盈": 2989,
      "益": 2990,
      "盎": 2991,
      "盏": 2992,
      "盐": 2993,
      "监": 2994,
      "盒": 2995,
      "盔": 2996,
      "盖": 2997,
      "盗": 2998,
      "盘": 2999,
      "盛": 3000,
      "盟": 3001,
      "盥": 3002,
      "目": 3003,
      "盯": 3004,
      "盲": 3005,
      "直": 3006,
      "相": 3007,
      "盹": 3008,
      "盼": 3009,
      "盾": 3010,
      "省": 3011,
      "眈": 3012,
      "眉": 3013,
      "看": 3014,
      "真": 3015,
      "眠": 3016,
      "眦": 3017,
      "眨": 3018,
      "眩": 3019,
      "眯": 3020,
      "眶": 3021,
      "眷": 3022,
      "眸": 3023,
      "眺": 3024,
      "眼": 3025,
      "着": 3026,
      "睁": 3027,
      "睐": 3028,
      "睑": 3029,
      "睚": 3030,
      "睛": 3031,
      "睡": 3032,
      "督": 3033,
      "睥": 3034,
      "睦": 3035,
      "睨": 3036,
      "睫": 3037,
      "睬": 3038,
      "睹": 3039,
      "睽": 3040,
      "睿": 3041,
      "瞄": 3042,
      "瞅": 3043,
      "瞌": 3044,
      "瞎": 3045,
      "瞑": 3046,
      "瞒": 3047,
      "瞟": 3048,
      "瞠": 3049,
      "瞥": 3050,
      "瞧": 3051,
      "瞩": 3052,
      "瞪": 3053,
      "瞬": 3054,
      "瞭": 3055,
      "瞰": 3056,
      "瞳": 3057,
      "瞻": 3058,
      "矍": 3059,
      "矗": 3060,
      "矛": 3061,
      "矜": 3062,
      "矢": 3063,
      "矣": 3064,
      "知": 3065,
      "矩": 3066,
      "矫": 3067,
      "矬": 3068,
      "短": 3069,
      "矮": 3070,
      "石": 3071,
      "矿": 3072,
      "码": 3073,
      "砂": 3074,
      "砌": 3075,
      "砍": 3076,
      "研": 3077,
      "砖": 3078,
      "砚": 3079,
      "砝": 3080,
      "砣": 3081,
      "砥": 3082,
      "砧": 3083,
      "砰": 3084,
      "破": 3085,
      "砸": 3086,
      "砺": 3087,
      "砾": 3088,
      "础": 3089,
      "硅": 3090,
      "硌": 3091,
      "硕": 3092,
      "硝": 3093,
      "硫": 3094,
      "硬": 3095,
      "确": 3096,
      "碉": 3097,
      "碌": 3098,
      "碍": 3099,
      "碎": 3100,
      "碑": 3101,
      "碗": 3102,
      "碘": 3103,
      "碜": 3104,
      "碟": 3105,
      "碧": 3106,
      "碰": 3107,
      "碱": 3108,
      "碳": 3109,
      "碴": 3110,
      "碾": 3111,
      "磁": 3112,
      "磅": 3113,
      "磊": 3114,
      "磋": 3115,
      "磐": 3116,
      "磕": 3117,
      "磨": 3118,
      "磷": 3119,
      "磺": 3120,
      "礁": 3121,
      "礴": 3122,
      "示": 3123,
      "礼": 3124,
      "社": 3125,
      "祀": 3126,
      "祂": 3127,
      "祇": 3128,
      "祈": 3129,
      "祉": 3130,
      "祖": 3131,
      "祗": 3132,
      "祛": 3133,
      "祝": 3134,
      "神": 3135,
      "祟": 3136,
      "祠": 3137,
      "祥": 3138,
      "票": 3139,
      "祭": 3140,
      "祷": 3141,
      "祸": 3142,
      "禀": 3143,
      "禁": 3144,
      "禄": 3145,
      "禅": 3146,
      "福": 3147,
      "禹": 3148,
      "离": 3149,
      "禽": 3150,
      "禾": 3151,
      "秀": 3152,
      "私": 3153,
      "秃": 3154,
      "秆": 3155,
      "秉": 3156,
      "秋": 3157,
      "种": 3158,
      "科": 3159,
      "秒": 3160,
      "秘": 3161,
      "租": 3162,
      "秤": 3163,
      "秦": 3164,
      "秧": 3165,
      "秩": 3166,
      "积": 3167,
      "称": 3168,
      "秸": 3169,
      "移": 3170,
      "秽": 3171,
      "稀": 3172,
      "程": 3173,
      "稍": 3174,
      "税": 3175,
      "稔": 3176,
      "稚": 3177,
      "稞": 3178,
      "稠": 3179,
      "稣": 3180,
      "稳": 3181,
      "稷": 3182,
      "稻": 3183,
      "稼": 3184,
      "稽": 3185,
      "稿": 3186,
      "穂": 3187,
      "穆": 3188,
      "穗": 3189,
      "穴": 3190,
      "究": 3191,
      "穷": 3192,
      "穹": 3193,
      "空": 3194,
      "穿": 3195,
      "突": 3196,
      "窃": 3197,
      "窄": 3198,
      "窈": 3199,
      "窍": 3200,
      "窑": 3201,
      "窒": 3202,
      "窕": 3203,
      "窖": 3204,
      "窗": 3205,
      "窘": 3206,
      "窜": 3207,
      "窝": 3208,
      "窟": 3209,
      "窣": 3210,
      "窥": 3211,
      "窦": 3212,
      "窨": 3213,
      "窸": 3214,
      "窿": 3215,
      "立": 3216,
      "竖": 3217,
      "站": 3218,
      "竞": 3219,
      "竟": 3220,
      "章": 3221,
      "竣": 3222,
      "童": 3223,
      "竭": 3224,
      "端": 3225,
      "竹": 3226,
      "竽": 3227,
      "竿": 3228,
      "笃": 3229,
      "笆": 3230,
      "笋": 3231,
      "笑": 3232,
      "笔": 3233,
      "笙": 3234,
      "笛": 3235,
      "笠": 3236,
      "笤": 3237,
      "符": 3238,
      "笨": 3239,
      "第": 3240,
      "笼": 3241,
      "等": 3242,
      "筋": 3243,
      "筏": 3244,
      "筐": 3245,
      "筑": 3246,
      "筒": 3247,
      "答": 3248,
      "策": 3249,
      "筛": 3250,
      "筝": 3251,
      "筱": 3252,
      "筵": 3253,
      "筷": 3254,
      "筹": 3255,
      "签": 3256,
      "简": 3257,
      "箍": 3258,
      "箓": 3259,
      "箔": 3260,
      "箕": 3261,
      "算": 3262,
      "管": 3263,
      "箩": 3264,
      "箭": 3265,
      "箱": 3266,
      "篆": 3267,
      "篇": 3268,
      "篑": 3269,
      "篓": 3270,
      "篝": 3271,
      "篡": 3272,
      "篮": 3273,
      "篱": 3274,
      "篷": 3275,
      "篾": 3276,
      "簇": 3277,
      "簌": 3278,
      "簧": 3279,
      "簪": 3280,
      "簸": 3281,
      "簿": 3282,
      "籁": 3283,
      "籍": 3284,
      "米": 3285,
      "类": 3286,
      "籽": 3287,
      "粉": 3288,
      "粑": 3289,
      "粒": 3290,
      "粕": 3291,
      "粗": 3292,
      "粘": 3293,
      "粝": 3294,
      "粟": 3295,
      "粤": 3296,
      "粥": 3297,
      "粪": 3298,
      "粮": 3299,
      "粱": 3300,
      "粲": 3301,
      "粹": 3302,
      "粼": 3303,
      "粽": 3304,
      "精": 3305,
      "糅": 3306,
      "糊": 3307,
      "糕": 3308,
      "糖": 3309,
      "糗": 3310,
      "糙": 3311,
      "糜": 3312,
      "糟": 3313,
      "糠": 3314,
      "糯": 3315,
      "糸": 3316,
      "系": 3317,
      "紊": 3318,
      "素": 3319,
      "索": 3320,
      "紧": 3321,
      "紫": 3322,
      "累": 3323,
      "結": 3324,
      "絮": 3325,
      "繁": 3326,
      "纟": 3327,
      "纠": 3328,
      "纡": 3329,
      "红": 3330,
      "纣": 3331,
      "纤": 3332,
      "约": 3333,
      "级": 3334,
      "纨": 3335,
      "纪": 3336,
      "纫": 3337,
      "纬": 3338,
      "纭": 3339,
      "纯": 3340,
      "纰": 3341,
      "纱": 3342,
      "纲": 3343,
      "纳": 3344,
      "纵": 3345,
      "纶": 3346,
      "纷": 3347,
      "纸": 3348,
      "纹": 3349,
      "纺": 3350,
      "纽": 3351,
      "纾": 3352,
      "线": 3353,
      "练": 3354,
      "组": 3355,
      "绅": 3356,
      "细": 3357,
      "织": 3358,
      "终": 3359,
      "绉": 3360,
      "绊": 3361,
      "绍": 3362,
      "绎": 3363,
      "经": 3364,
      "绑": 3365,
      "绒": 3366,
      "结": 3367,
      "绔": 3368,
      "绕": 3369,
      "绘": 3370,
      "给": 3371,
      "绚": 3372,
      "绛": 3373,
      "络": 3374,
      "绝": 3375,
      "绞": 3376,
      "统": 3377,
      "绢": 3378,
      "绣": 3379,
      "继": 3380,
      "绩": 3381,
      "绪": 3382,
      "绫": 3383,
      "续": 3384,
      "绮": 3385,
      "绯": 3386,
      "绰": 3387,
      "绳": 3388,
      "维": 3389,
      "绵": 3390,
      "绷": 3391,
      "绸": 3392,
      "绺": 3393,
      "绻": 3394,
      "综": 3395,
      "绽": 3396,
      "绿": 3397,
      "缀": 3398,
      "缅": 3399,
      "缆": 3400,
      "缈": 3401,
      "缉": 3402,
      "缎": 3403,
      "缓": 3404,
      "缔": 3405,
      "缕": 3406,
      "编": 3407,
      "缘": 3408,
      "缚": 3409,
      "缜": 3410,
      "缝": 3411,
      "缠": 3412,
      "缤": 3413,
      "缥": 3414,
      "缨": 3415,
      "缩": 3416,
      "缪": 3417,
      "缭": 3418,
      "缮": 3419,
      "缰": 3420,
      "缱": 3421,
      "缳": 3422,
      "缴": 3423,
      "缸": 3424,
      "缺": 3425,
      "罄": 3426,
      "罐": 3427,
      "网": 3428,
      "罔": 3429,
      "罕": 3430,
      "罗": 3431,
      "罚": 3432,
      "罡": 3433,
      "罢": 3434,
      "罩": 3435,
      "罪": 3436,
      "置": 3437,
      "署": 3438,
      "罹": 3439,
      "羁": 3440,
      "羊": 3441,
      "羌": 3442,
      "美": 3443,
      "羔": 3444,
      "羚": 3445,
      "羞": 3446,
      "羟": 3447,
      "羡": 3448,
      "群": 3449,
      "羯": 3450,
      "羸": 3451,
      "羹": 3452,
      "羽": 3453,
      "翁": 3454,
      "翅": 3455,
      "翎": 3456,
      "翔": 3457,
      "翘": 3458,
      "翠": 3459,
      "翡": 3460,
      "翩": 3461,
      "翰": 3462,
      "翱": 3463,
      "翳": 3464,
      "翻": 3465,
      "翼": 3466,
      "耀": 3467,
      "老": 3468,
      "考": 3469,
      "者": 3470,
      "而": 3471,
      "耍": 3472,
      "耐": 3473,
      "耕": 3474,
      "耗": 3475,
      "耘": 3476,
      "耙": 3477,
      "耳": 3478,
      "耶": 3479,
      "耷": 3480,
      "耸": 3481,
      "耻": 3482,
      "耽": 3483,
      "耿": 3484,
      "聂": 3485,
      "聆": 3486,
      "聊": 3487,
      "聋": 3488,
      "职": 3489,
      "聒": 3490,
      "联": 3491,
      "聘": 3492,
      "聚": 3493,
      "聩": 3494,
      "聪": 3495,
      "肃": 3496,
      "肆": 3497,
      "肇": 3498,
      "肉": 3499,
      "肋": 3500,
      "肌": 3501,
      "肓": 3502,
      "肖": 3503,
      "肘": 3504,
      "肚": 3505,
      "肛": 3506,
      "肝": 3507,
      "肠": 3508,
      "股": 3509,
      "肢": 3510,
      "肤": 3511,
      "肥": 3512,
      "肩": 3513,
      "肪": 3514,
      "肮": 3515,
      "肯": 3516,
      "肱": 3517,
      "育": 3518,
      "肴": 3519,
      "肺": 3520,
      "肽": 3521,
      "肾": 3522,
      "肿": 3523,
      "胀": 3524,
      "胁": 3525,
      "胃": 3526,
      "胄": 3527,
      "胆": 3528,
      "背": 3529,
      "胎": 3530,
      "胖": 3531,
      "胚": 3532,
      "胛": 3533,
      "胜": 3534,
      "胞": 3535,
      "胡": 3536,
      "胧": 3537,
      "胫": 3538,
      "胭": 3539,
      "胯": 3540,
      "胰": 3541,
      "胱": 3542,
      "胳": 3543,
      "胶": 3544,
      "胸": 3545,
      "胺": 3546,
      "能": 3547,
      "脂": 3548,
      "脆": 3549,
      "脉": 3550,
      "脊": 3551,
      "脍": 3552,
      "脏": 3553,
      "脐": 3554,
      "脑": 3555,
      "脓": 3556,
      "脔": 3557,
      "脖": 3558,
      "脚": 3559,
      "脯": 3560,
      "脱": 3561,
      "脸": 3562,
      "脾": 3563,
      "腆": 3564,
      "腊": 3565,
      "腋": 3566,
      "腌": 3567,
      "腐": 3568,
      "腑": 3569,
      "腔": 3570,
      "腕": 3571,
      "腚": 3572,
      "腥": 3573,
      "腩": 3574,
      "腮": 3575,
      "腰": 3576,
      "腱": 3577,
      "腴": 3578,
      "腹": 3579,
      "腺": 3580,
      "腻": 3581,
      "腼": 3582,
      "腾": 3583,
      "腿": 3584,
      "膀": 3585,
      "膂": 3586,
      "膈": 3587,
      "膊": 3588,
      "膏": 3589,
      "膘": 3590,
      "膛": 3591,
      "膜": 3592,
      "膝": 3593,
      "膨": 3594,
      "膳": 3595,
      "膺": 3596,
      "膻": 3597,
      "臀": 3598,
      "臂": 3599,
      "臃": 3600,
      "臆": 3601,
      "臊": 3602,
      "臜": 3603,
      "臣": 3604,
      "自": 3605,
      "臭": 3606,
      "至": 3607,
      "致": 3608,
      "臼": 3609,
      "臾": 3610,
      "舀": 3611,
      "舅": 3612,
      "舆": 3613,
      "舌": 3614,
      "舍": 3615,
      "舐": 3616,
      "舒": 3617,
      "舔": 3618,
      "舛": 3619,
      "舜": 3620,
      "舞": 3621,
      "舟": 3622,
      "舢": 3623,
      "航": 3624,
      "般": 3625,
      "舭": 3626,
      "舰": 3627,
      "舱": 3628,
      "舵": 3629,
      "舶": 3630,
      "舷": 3631,
      "船": 3632,
      "艇": 3633,
      "艘": 3634,
      "艮": 3635,
      "良": 3636,
      "艰": 3637,
      "色": 3638,
      "艳": 3639,
      "艺": 3640,
      "艾": 3641,
      "节": 3642,
      "芋": 3643,
      "芒": 3644,
      "芙": 3645,
      "芜": 3646,
      "芝": 3647,
      "芡": 3648,
      "芥": 3649,
      "芦": 3650,
      "芬": 3651,
      "芭": 3652,
      "芯": 3653,
      "花": 3654,
      "芳": 3655,
      "芸": 3656,
      "芹": 3657,
      "芽": 3658,
      "苇": 3659,
      "苋": 3660,
      "苍": 3661,
      "苏": 3662,
      "苑": 3663,
      "苒": 3664,
      "苔": 3665,
      "苕": 3666,
      "苗": 3667,
      "苛": 3668,
      "苞": 3669,
      "苟": 3670,
      "若": 3671,
      "苦": 3672,
      "苯": 3673,
      "英": 3674,
      "苷": 3675,
      "苹": 3676,
      "茁": 3677,
      "茂": 3678,
      "范": 3679,
      "茄": 3680,
      "茅": 3681,
      "茉": 3682,
      "茎": 3683,
      "茜": 3684,
      "茧": 3685,
      "茨": 3686,
      "茫": 3687,
      "茬": 3688,
      "茴": 3689,
      "茵": 3690,
      "茶": 3691,
      "茸": 3692,
      "茹": 3693,
      "荆": 3694,
      "草": 3695,
      "荏": 3696,
      "荐": 3697,
      "荒": 3698,
      "荔": 3699,
      "荚": 3700,
      "荞": 3701,
      "荟": 3702,
      "荠": 3703,
      "荡": 3704,
      "荣": 3705,
      "荤": 3706,
      "荥": 3707,
      "荧": 3708,
      "荨": 3709,
      "荪": 3710,
      "荫": 3711,
      "药": 3712,
      "荷": 3713,
      "荼": 3714,
      "莅": 3715,
      "莉": 3716,
      "莎": 3717,
      "莓": 3718,
      "莞": 3719,
      "莪": 3720,
      "莫": 3721,
      "莱": 3722,
      "莲": 3723,
      "获": 3724,
      "莹": 3725,
      "莺": 3726,
      "莽": 3727,
      "菅": 3728,
      "菇": 3729,
      "菊": 3730,
      "菌": 3731,
      "菜": 3732,
      "菟": 3733,
      "菠": 3734,
      "菩": 3735,
      "菱": 3736,
      "菲": 3737,
      "萃": 3738,
      "萄": 3739,
      "萋": 3740,
      "萌": 3741,
      "萍": 3742,
      "萎": 3743,
      "萝": 3744,
      "萤": 3745,
      "营": 3746,
      "萦": 3747,
      "萧": 3748,
      "萨": 3749,
      "萱": 3750,
      "落": 3751,
      "葆": 3752,
      "著": 3753,
      "葛": 3754,
      "葡": 3755,
      "董": 3756,
      "葩": 3757,
      "葫": 3758,
      "葬": 3759,
      "葱": 3760,
      "葵": 3761,
      "葺": 3762,
      "蒂": 3763,
      "蒙": 3764,
      "蒜": 3765,
      "蒲": 3766,
      "蒸": 3767,
      "蒿": 3768,
      "蓄": 3769,
      "蓉": 3770,
      "蓑": 3771,
      "蓝": 3772,
      "蓟": 3773,
      "蓦": 3774,
      "蓬": 3775,
      "蔑": 3776,
      "蔓": 3777,
      "蔗": 3778,
      "蔚": 3779,
      "蔡": 3780,
      "蔫": 3781,
      "蔬": 3782,
      "蔻": 3783,
      "蔼": 3784,
      "蔽": 3785,
      "蕉": 3786,
      "蕊": 3787,
      "蕖": 3788,
      "蕨": 3789,
      "蕴": 3790,
      "蕾": 3791,
      "薄": 3792,
      "薅": 3793,
      "薇": 3794,
      "薛": 3795,
      "薪": 3796,
      "薯": 3797,
      "薰": 3798,
      "藉": 3799,
      "藏": 3800,
      "藐": 3801,
      "藓": 3802,
      "藕": 3803,
      "藤": 3804,
      "藻": 3805,
      "藿": 3806,
      "蘑": 3807,
      "蘸": 3808,
      "虎": 3809,
      "虏": 3810,
      "虐": 3811,
      "虑": 3812,
      "虔": 3813,
      "虚": 3814,
      "虞": 3815,
      "虫": 3816,
      "虬": 3817,
      "虱": 3818,
      "虹": 3819,
      "虽": 3820,
      "虾": 3821,
      "蚀": 3822,
      "蚁": 3823,
      "蚂": 3824,
      "蚊": 3825,
      "蚋": 3826,
      "蚌": 3827,
      "蚍": 3828,
      "蚓": 3829,
      "蚕": 3830,
      "蚝": 3831,
      "蚣": 3832,
      "蚤": 3833,
      "蚪": 3834,
      "蚯": 3835,
      "蚱": 3836,
      "蚴": 3837,
      "蚺": 3838,
      "蛀": 3839,
      "蛆": 3840,
      "蛇": 3841,
      "蛊": 3842,
      "蛋": 3843,
      "蛎": 3844,
      "蛏": 3845,
      "蛐": 3846,
      "蛔": 3847,
      "蛙": 3848,
      "蛛": 3849,
      "蛟": 3850,
      "蛤": 3851,
      "蛭": 3852,
      "蛮": 3853,
      "蛰": 3854,
      "蛳": 3855,
      "蛴": 3856,
      "蛹": 3857,
      "蛻": 3858,
      "蛾": 3859,
      "蜀": 3860,
      "蜂": 3861,
      "蜃": 3862,
      "蜇": 3863,
      "蜈": 3864,
      "蜉": 3865,
      "蜊": 3866,
      "蜒": 3867,
      "蜓": 3868,
      "蜕": 3869,
      "蜗": 3870,
      "蜘": 3871,
      "蜚": 3872,
      "蜜": 3873,
      "蜡": 3874,
      "蜥": 3875,
      "蜱": 3876,
      "蜴": 3877,
      "蜷": 3878,
      "蜻": 3879,
      "蜿": 3880,
      "蝇": 3881,
      "蝈": 3882,
      "蝉": 3883,
      "蝌": 3884,
      "蝎": 3885,
      "蝗": 3886,
      "蝙": 3887,
      "蝠": 3888,
      "蝣": 3889,
      "蝮": 3890,
      "蝴": 3891,
      "蝶": 3892,
      "蝼": 3893,
      "蝾": 3894,
      "螂": 3895,
      "螃": 3896,
      "螅": 3897,
      "螈": 3898,
      "融": 3899,
      "螠": 3900,
      "螨": 3901,
      "螬": 3902,
      "螯": 3903,
      "螳": 3904,
      "螺": 3905,
      "螽": 3906,
      "蟆": 3907,
      "蟑": 3908,
      "蟒": 3909,
      "蟞": 3910,
      "蟹": 3911,
      "蠕": 3912,
      "蠛": 3913,
      "蠢": 3914,
      "血": 3915,
      "衅": 3916,
      "行": 3917,
      "衍": 3918,
      "衔": 3919,
      "街": 3920,
      "衙": 3921,
      "衡": 3922,
      "衣": 3923,
      "补": 3924,
      "表": 3925,
      "衩": 3926,
      "衫": 3927,
      "衬": 3928,
      "衰": 3929,
      "衲": 3930,
      "衷": 3931,
      "衿": 3932,
      "袁": 3933,
      "袂": 3934,
      "袄": 3935,
      "袅": 3936,
      "袈": 3937,
      "袋": 3938,
      "袍": 3939,
      "袒": 3940,
      "袖": 3941,
      "袜": 3942,
      "袤": 3943,
      "被": 3944,
      "袭": 3945,
      "袱": 3946,
      "裁": 3947,
      "裂": 3948,
      "装": 3949,
      "裆": 3950,
      "裏": 3951,
      "裔": 3952,
      "裕": 3953,
      "裘": 3954,
      "裙": 3955,
      "裟": 3956,
      "裢": 3957,
      "裤": 3958,
      "裨": 3959,
      "裰": 3960,
      "裱": 3961,
      "裳": 3962,
      "裸": 3963,
      "裹": 3964,
      "褂": 3965,
      "褐": 3966,
      "褒": 3967,
      "褓": 3968,
      "褙": 3969,
      "褛": 3970,
      "褡": 3971,
      "褥": 3972,
      "褪": 3973,
      "褴": 3974,
      "褶": 3975,
      "襁": 3976,
      "襟": 3977,
      "襦": 3978,
      "西": 3979,
      "要": 3980,
      "覆": 3981,
      "见": 3982,
      "观": 3983,
      "规": 3984,
      "觅": 3985,
      "视": 3986,
      "览": 3987,
      "觉": 3988,
      "觊": 3989,
      "觎": 3990,
      "觑": 3991,
      "角": 3992,
      "解": 3993,
      "觥": 3994,
      "触": 3995,
      "言": 3996,
      "詹": 3997,
      "誉": 3998,
      "誓": 3999,
      "警": 4000,
      "譬": 4001,
      "计": 4002,
      "订": 4003,
      "讣": 4004,
      "认": 4005,
      "讥": 4006,
      "讦": 4007,
      "讧": 4008,
      "讨": 4009,
      "让": 4010,
      "讪": 4011,
      "讫": 4012,
      "训": 4013,
      "议": 4014,
      "讯": 4015,
      "记": 4016,
      "讲": 4017,
      "讳": 4018,
      "讶": 4019,
      "讷": 4020,
      "许": 4021,
      "讹": 4022,
      "论": 4023,
      "讼": 4024,
      "讽": 4025,
      "设": 4026,
      "访": 4027,
      "诀": 4028,
      "证": 4029,
      "诃": 4030,
      "评": 4031,
      "诅": 4032,
      "识": 4033,
      "诈": 4034,
      "诉": 4035,
      "诊": 4036,
      "诋": 4037,
      "诌": 4038,
      "词": 4039,
      "诏": 4040,
      "译": 4041,
      "诓": 4042,
      "试": 4043,
      "诗": 4044,
      "诘": 4045,
      "诙": 4046,
      "诚": 4047,
      "诛": 4048,
      "话": 4049,
      "诞": 4050,
      "诟": 4051,
      "诠": 4052,
      "诡": 4053,
      "询": 4054,
      "诣": 4055,
      "该": 4056,
      "详": 4057,
      "诧": 4058,
      "诨": 4059,
      "诩": 4060,
      "诫": 4061,
      "诬": 4062,
      "语": 4063,
      "诮": 4064,
      "误": 4065,
      "诱": 4066,
      "诲": 4067,
      "诳": 4068,
      "说": 4069,
      "诵": 4070,
      "诶": 4071,
      "请": 4072,
      "诸": 4073,
      "诺": 4074,
      "读": 4075,
      "诽": 4076,
      "课": 4077,
      "谀": 4078,
      "谁": 4079,
      "调": 4080,
      "谄": 4081,
      "谅": 4082,
      "谆": 4083,
      "谈": 4084,
      "谊": 4085,
      "谋": 4086,
      "谍": 4087,
      "谎": 4088,
      "谏": 4089,
      "谐": 4090,
      "谑": 4091,
      "谓": 4092,
      "谔": 4093,
      "谕": 4094,
      "谗": 4095,
      "谙": 4096,
      "谛": 4097,
      "谜": 4098,
      "谢": 4099,
      "谣": 4100,
      "谤": 4101,
      "谦": 4102,
      "谧": 4103,
      "谨": 4104,
      "谩": 4105,
      "谪": 4106,
      "谬": 4107,
      "谭": 4108,
      "谱": 4109,
      "谲": 4110,
      "谴": 4111,
      "谶": 4112,
      "谷": 4113,
      "豁": 4114,
      "豆": 4115,
      "豌": 4116,
      "豚": 4117,
      "象": 4118,
      "豢": 4119,
      "豪": 4120,
      "豫": 4121,
      "豸": 4122,
      "豹": 4123,
      "豺": 4124,
      "貂": 4125,
      "貅": 4126,
      "貌": 4127,
      "貔": 4128,
      "貘": 4129,
      "贝": 4130,
      "贞": 4131,
      "负": 4132,
      "贡": 4133,
      "财": 4134,
      "责": 4135,
      "贤": 4136,
      "败": 4137,
      "账": 4138,
      "货": 4139,
      "质": 4140,
      "贩": 4141,
      "贪": 4142,
      "贫": 4143,
      "贬": 4144,
      "购": 4145,
      "贯": 4146,
      "贰": 4147,
      "贱": 4148,
      "贲": 4149,
      "贴": 4150,
      "贵": 4151,
      "贷": 4152,
      "贸": 4153,
      "费": 4154,
      "贺": 4155,
      "贻": 4156,
      "贼": 4157,
      "贾": 4158,
      "贿": 4159,
      "赁": 4160,
      "赂": 4161,
      "赃": 4162,
      "资": 4163,
      "赅": 4164,
      "赊": 4165,
      "赋": 4166,
      "赌": 4167,
      "赎": 4168,
      "赏": 4169,
      "赐": 4170,
      "赑": 4171,
      "赔": 4172,
      "赖": 4173,
      "赘": 4174,
      "赚": 4175,
      "赛": 4176,
      "赝": 4177,
      "赞": 4178,
      "赠": 4179,
      "赡": 4180,
      "赢": 4181,
      "赤": 4182,
      "赦": 4183,
      "赧": 4184,
      "赫": 4185,
      "走": 4186,
      "赳": 4187,
      "赴": 4188,
      "赵": 4189,
      "赶": 4190,
      "起": 4191,
      "趁": 4192,
      "趄": 4193,
      "超": 4194,
      "越": 4195,
      "趋": 4196,
      "趔": 4197,
      "趟": 4198,
      "趣": 4199,
      "足": 4200,
      "趴": 4201,
      "趸": 4202,
      "趾": 4203,
      "跃": 4204,
      "跄": 4205,
      "跆": 4206,
      "跋": 4207,
      "跌": 4208,
      "跎": 4209,
      "跑": 4210,
      "跗": 4211,
      "跚": 4212,
      "跛": 4213,
      "距": 4214,
      "跟": 4215,
      "跤": 4216,
      "跨": 4217,
      "跪": 4218,
      "路": 4219,
      "跳": 4220,
      "践": 4221,
      "跶": 4222,
      "跷": 4223,
      "跹": 4224,
      "跺": 4225,
      "跻": 4226,
      "踉": 4227,
      "踊": 4228,
      "踌": 4229,
      "踏": 4230,
      "踝": 4231,
      "踞": 4232,
      "踢": 4233,
      "踩": 4234,
      "踪": 4235,
      "踮": 4236,
      "踱": 4237,
      "踵": 4238,
      "踹": 4239,
      "蹁": 4240,
      "蹂": 4241,
      "蹄": 4242,
      "蹈": 4243,
      "蹉": 4244,
      "蹊": 4245,
      "蹋": 4246,
      "蹑": 4247,
      "蹒": 4248,
      "蹙": 4249,
      "蹚": 4250,
      "蹦": 4251,
      "蹩": 4252,
      "蹬": 4253,
      "蹭": 4254,
      "蹲": 4255,
      "蹴": 4256,
      "蹶": 4257,
      "蹼": 4258,
      "蹿": 4259,
      "躁": 4260,
      "躇": 4261,
      "躏": 4262,
      "身": 4263,
      "躬": 4264,
      "躯": 4265,
      "躲": 4266,
      "躺": 4267,
      "車": 4268,
      "车": 4269,
      "轧": 4270,
      "轨": 4271,
      "轩": 4272,
      "转": 4273,
      "轮": 4274,
      "软": 4275,
      "轰": 4276,
      "轱": 4277,
      "轴": 4278,
      "轻": 4279,
      "载": 4280,
      "轿": 4281,
      "较": 4282,
      "辄": 4283,
      "辅": 4284,
      "辆": 4285,
      "辇": 4286,
      "辈": 4287,
      "辉": 4288,
      "辍": 4289,
      "辐": 4290,
      "辑": 4291,
      "输": 4292,
      "辕": 4293,
      "辖": 4294,
      "辗": 4295,
      "辘": 4296,
      "辙": 4297,
      "辛": 4298,
      "辜": 4299,
      "辞": 4300,
      "辟": 4301,
      "辣": 4302,
      "辨": 4303,
      "辩": 4304,
      "辫": 4305,
      "辰": 4306,
      "辱": 4307,
      "辶": 4308,
      "边": 4309,
      "辽": 4310,
      "达": 4311,
      "迁": 4312,
      "迂": 4313,
      "迄": 4314,
      "迅": 4315,
      "过": 4316,
      "迈": 4317,
      "迎": 4318,
      "运": 4319,
      "近": 4320,
      "返": 4321,
      "还": 4322,
      "这": 4323,
      "进": 4324,
      "远": 4325,
      "违": 4326,
      "连": 4327,
      "迟": 4328,
      "迢": 4329,
      "迥": 4330,
      "迦": 4331,
      "迩": 4332,
      "迪": 4333,
      "迫": 4334,
      "迭": 4335,
      "述": 4336,
      "迷": 4337,
      "迸": 4338,
      "迹": 4339,
      "追": 4340,
      "退": 4341,
      "送": 4342,
      "适": 4343,
      "逃": 4344,
      "逅": 4345,
      "逆": 4346,
      "选": 4347,
      "逊": 4348,
      "逍": 4349,
      "透": 4350,
      "逐": 4351,
      "递": 4352,
      "途": 4353,
      "逗": 4354,
      "通": 4355,
      "逛": 4356,
      "逝": 4357,
      "逞": 4358,
      "速": 4359,
      "造": 4360,
      "逡": 4361,
      "逢": 4362,
      "逮": 4363,
      "逵": 4364,
      "逸": 4365,
      "逻": 4366,
      "逼": 4367,
      "逾": 4368,
      "遁": 4369,
      "遂": 4370,
      "遇": 4371,
      "遍": 4372,
      "遏": 4373,
      "遐": 4374,
      "遑": 4375,
      "遒": 4376,
      "道": 4377,
      "遗": 4378,
      "遛": 4379,
      "遢": 4380,
      "遣": 4381,
      "遥": 4382,
      "遨": 4383,
      "遭": 4384,
      "遮": 4385,
      "遵": 4386,
      "避": 4387,
      "邀": 4388,
      "邂": 4389,
      "邃": 4390,
      "邋": 4391,
      "邙": 4392,
      "那": 4393,
      "邦": 4394,
      "邪": 4395,
      "邮": 4396,
      "邱": 4397,
      "邸": 4398,
      "邹": 4399,
      "邻": 4400,
      "郁": 4401,
      "郊": 4402,
      "郎": 4403,
      "郑": 4404,
      "郝": 4405,
      "郡": 4406,
      "部": 4407,
      "郭": 4408,
      "都": 4409,
      "鄂": 4410,
      "鄙": 4411,
      "酊": 4412,
      "酋": 4413,
      "酌": 4414,
      "配": 4415,
      "酒": 4416,
      "酗": 4417,
      "酚": 4418,
      "酝": 4419,
      "酡": 4420,
      "酣": 4421,
      "酥": 4422,
      "酩": 4423,
      "酪": 4424,
      "酬": 4425,
      "酱": 4426,
      "酵": 4427,
      "酶": 4428,
      "酷": 4429,
      "酸": 4430,
      "酿": 4431,
      "醇": 4432,
      "醉": 4433,
      "醋": 4434,
      "醍": 4435,
      "醐": 4436,
      "醒": 4437,
      "醛": 4438,
      "醺": 4439,
      "采": 4440,
      "釉": 4441,
      "释": 4442,
      "里": 4443,
      "重": 4444,
      "野": 4445,
      "量": 4446,
      "金": 4447,
      "釜": 4448,
      "鉴": 4449,
      "銮": 4450,
      "鎏": 4451,
      "鏖": 4452,
      "鑫": 4453,
      "针": 4454,
      "钉": 4455,
      "钊": 4456,
      "钓": 4457,
      "钗": 4458,
      "钙": 4459,
      "钚": 4460,
      "钛": 4461,
      "钝": 4462,
      "钞": 4463,
      "钟": 4464,
      "钠": 4465,
      "钡": 4466,
      "钢": 4467,
      "钥": 4468,
      "钦": 4469,
      "钧": 4470,
      "钨": 4471,
      "钩": 4472,
      "钮": 4473,
      "钰": 4474,
      "钱": 4475,
      "钳": 4476,
      "钵": 4477,
      "钻": 4478,
      "钾": 4479,
      "钿": 4480,
      "铀": 4481,
      "铁": 4482,
      "铃": 4483,
      "铄": 4484,
      "铅": 4485,
      "铆": 4486,
      "铋": 4487,
      "铎": 4488,
      "铐": 4489,
      "铛": 4490,
      "铜": 4491,
      "铝": 4492,
      "铠": 4493,
      "铡": 4494,
      "铢": 4495,
      "铤": 4496,
      "铩": 4497,
      "铭": 4498,
      "铮": 4499,
      "铲": 4500,
      "铳": 4501,
      "银": 4502,
      "铸": 4503,
      "铺": 4504,
      "链": 4505,
      "铿": 4506,
      "销": 4507,
      "锁": 4508,
      "锃": 4509,
      "锄": 4510,
      "锅": 4511,
      "锈": 4512,
      "锉": 4513,
      "锋": 4514,
      "锏": 4515,
      "锐": 4516,
      "锒": 4517,
      "错": 4518,
      "锚": 4519,
      "锡": 4520,
      "锢": 4521,
      "锣": 4522,
      "锤": 4523,
      "锥": 4524,
      "锦": 4525,
      "锭": 4526,
      "键": 4527,
      "锯": 4528,
      "锱": 4529,
      "锲": 4530,
      "锵": 4531,
      "锹": 4532,
      "锻": 4533,
      "镀": 4534,
      "镁": 4535,
      "镂": 4536,
      "镇": 4537,
      "镊": 4538,
      "镌": 4539,
      "镐": 4540,
      "镖": 4541,
      "镚": 4542,
      "镜": 4543,
      "镝": 4544,
      "镣": 4545,
      "镫": 4546,
      "镭": 4547,
      "镯": 4548,
      "镰": 4549,
      "镳": 4550,
      "镶": 4551,
      "长": 4552,
      "门": 4553,
      "闪": 4554,
      "闫": 4555,
      "闭": 4556,
      "问": 4557,
      "闯": 4558,
      "闰": 4559,
      "闱": 4560,
      "闲": 4561,
      "间": 4562,
      "闵": 4563,
      "闷": 4564,
      "闸": 4565,
      "闹": 4566,
      "闺": 4567,
      "闻": 4568,
      "闼": 4569,
      "闽": 4570,
      "阀": 4571,
      "阁": 4572,
      "阂": 4573,
      "阅": 4574,
      "阆": 4575,
      "阈": 4576,
      "阉": 4577,
      "阋": 4578,
      "阎": 4579,
      "阐": 4580,
      "阑": 4581,
      "阔": 4582,
      "阖": 4583,
      "阙": 4584,
      "阜": 4585,
      "队": 4586,
      "阡": 4587,
      "阪": 4588,
      "阱": 4589,
      "防": 4590,
      "阳": 4591,
      "阴": 4592,
      "阵": 4593,
      "阶": 4594,
      "阻": 4595,
      "阿": 4596,
      "陀": 4597,
      "陂": 4598,
      "附": 4599,
      "际": 4600,
      "陆": 4601,
      "陈": 4602,
      "陋": 4603,
      "陌": 4604,
      "降": 4605,
      "限": 4606,
      "陛": 4607,
      "陡": 4608,
      "院": 4609,
      "除": 4610,
      "陨": 4611,
      "险": 4612,
      "陪": 4613,
      "陲": 4614,
      "陳": 4615,
      "陵": 4616,
      "陶": 4617,
      "陷": 4618,
      "隅": 4619,
      "隆": 4620,
      "隋": 4621,
      "隍": 4622,
      "随": 4623,
      "隐": 4624,
      "隔": 4625,
      "隘": 4626,
      "隙": 4627,
      "障": 4628,
      "隧": 4629,
      "隶": 4630,
      "隼": 4631,
      "隽": 4632,
      "难": 4633,
      "雀": 4634,
      "雁": 4635,
      "雄": 4636,
      "雅": 4637,
      "集": 4638,
      "雇": 4639,
      "雉": 4640,
      "雌": 4641,
      "雍": 4642,
      "雏": 4643,
      "雕": 4644,
      "雨": 4645,
      "雪": 4646,
      "雮": 4647,
      "雯": 4648,
      "雲": 4649,
      "雳": 4650,
      "零": 4651,
      "雷": 4652,
      "雹": 4653,
      "雾": 4654,
      "需": 4655,
      "霁": 4656,
      "霄": 4657,
      "霆": 4658,
      "震": 4659,
      "霉": 4660,
      "霍": 4661,
      "霎": 4662,
      "霓": 4663,
      "霖": 4664,
      "霜": 4665,
      "霞": 4666,
      "霭": 4667,
      "霰": 4668,
      "露": 4669,
      "霸": 4670,
      "霹": 4671,
      "霾": 4672,
      "青": 4673,
      "靓": 4674,
      "靖": 4675,
      "静": 4676,
      "非": 4677,
      "靠": 4678,
      "靡": 4679,
      "面": 4680,
      "靥": 4681,
      "革": 4682,
      "靳": 4683,
      "靴": 4684,
      "靶": 4685,
      "鞋": 4686,
      "鞍": 4687,
      "鞑": 4688,
      "鞘": 4689,
      "鞠": 4690,
      "鞣": 4691,
      "鞭": 4692,
      "韦": 4693,
      "韧": 4694,
      "韩": 4695,
      "韪": 4696,
      "韬": 4697,
      "韭": 4698,
      "音": 4699,
      "韵": 4700,
      "韶": 4701,
      "页": 4702,
      "顶": 4703,
      "顷": 4704,
      "项": 4705,
      "顺": 4706,
      "须": 4707,
      "顽": 4708,
      "顾": 4709,
      "顿": 4710,
      "颀": 4711,
      "颁": 4712,
      "颂": 4713,
      "预": 4714,
      "颅": 4715,
      "领": 4716,
      "颇": 4717,
      "颈": 4718,
      "颊": 4719,
      "颌": 4720,
      "颐": 4721,
      "频": 4722,
      "颓": 4723,
      "颔": 4724,
      "颖": 4725,
      "颗": 4726,
      "题": 4727,
      "颚": 4728,
      "颜": 4729,
      "额": 4730,
      "颠": 4731,
      "颤": 4732,
      "颦": 4733,
      "颧": 4734,
      "风": 4735,
      "飒": 4736,
      "飓": 4737,
      "飕": 4738,
      "飘": 4739,
      "飙": 4740,
      "飚": 4741,
      "飞": 4742,
      "食": 4743,
      "飨": 4744,
      "餐": 4745,
      "餮": 4746,
      "饕": 4747,
      "饥": 4748,
      "饨": 4749,
      "饪": 4750,
      "饬": 4751,
      "饭": 4752,
      "饮": 4753,
      "饯": 4754,
      "饰": 4755,
      "饱": 4756,
      "饲": 4757,
      "饴": 4758,
      "饵": 4759,
      "饶": 4760,
      "饷": 4761,
      "饺": 4762,
      "饼": 4763,
      "饽": 4764,
      "饿": 4765,
      "馁": 4766,
      "馄": 4767,
      "馅": 4768,
      "馆": 4769,
      "馈": 4770,
      "馊": 4771,
      "馋": 4772,
      "馍": 4773,
      "馏": 4774,
      "馐": 4775,
      "馒": 4776,
      "首": 4777,
      "馗": 4778,
      "香": 4779,
      "馥": 4780,
      "馨": 4781,
      "驒": 4782,
      "马": 4783,
      "驭": 4784,
      "驮": 4785,
      "驯": 4786,
      "驰": 4787,
      "驱": 4788,
      "驳": 4789,
      "驴": 4790,
      "驶": 4791,
      "驷": 4792,
      "驸": 4793,
      "驹": 4794,
      "驻": 4795,
      "驼": 4796,
      "驾": 4797,
      "驿": 4798,
      "骁": 4799,
      "骂": 4800,
      "骄": 4801,
      "骆": 4802,
      "骇": 4803,
      "骋": 4804,
      "验": 4805,
      "骏": 4806,
      "骑": 4807,
      "骗": 4808,
      "骚": 4809,
      "骛": 4810,
      "骜": 4811,
      "骟": 4812,
      "骡": 4813,
      "骤": 4814,
      "骨": 4815,
      "骰": 4816,
      "骷": 4817,
      "骸": 4818,
      "骼": 4819,
      "髅": 4820,
      "髓": 4821,
      "高": 4822,
      "髦": 4823,
      "髯": 4824,
      "髻": 4825,
      "鬃": 4826,
      "鬓": 4827,
      "鬟": 4828,
      "鬣": 4829,
      "鬼": 4830,
      "魁": 4831,
      "魂": 4832,
      "魃": 4833,
      "魄": 4834,
      "魅": 4835,
      "魇": 4836,
      "魉": 4837,
      "魍": 4838,
      "魏": 4839,
      "魑": 4840,
      "魔": 4841,
      "鱼": 4842,
      "鱿": 4843,
      "鲁": 4844,
      "鲈": 4845,
      "鲍": 4846,
      "鲎": 4847,
      "鲑": 4848,
      "鲛": 4849,
      "鲜": 4850,
      "鲟": 4851,
      "鲠": 4852,
      "鲡": 4853,
      "鲢": 4854,
      "鲤": 4855,
      "鲨": 4856,
      "鲫": 4857,
      "鲱": 4858,
      "鲲": 4859,
      "鲳": 4860,
      "鲶": 4861,
      "鲷": 4862,
      "鲸": 4863,
      "鲽": 4864,
      "鳃": 4865,
      "鳄": 4866,
      "鳅": 4867,
      "鳌": 4868,
      "鳍": 4869,
      "鳏": 4870,
      "鳕": 4871,
      "鳖": 4872,
      "鳗": 4873,
      "鳝": 4874,
      "鳞": 4875,
      "鸟": 4876,
      "鸠": 4877,
      "鸡": 4878,
      "鸢": 4879,
      "鸣": 4880,
      "鸥": 4881,
      "鸦": 4882,
      "鸨": 4883,
      "鸩": 4884,
      "鸭": 4885,
      "鸯": 4886,
      "鸳": 4887,
      "鸵": 4888,
      "鸷": 4889,
      "鸸": 4890,
      "鸻": 4891,
      "鸽": 4892,
      "鸾": 4893,
      "鸿": 4894,
      "鹄": 4895,
      "鹅": 4896,
      "鹊": 4897,
      "鹋": 4898,
      "鹌": 4899,
      "鹏": 4900,
      "鹑": 4901,
      "鹘": 4902,
      "鹜": 4903,
      "鹞": 4904,
      "鹟": 4905,
      "鹤": 4906,
      "鹫": 4907,
      "鹬": 4908,
      "鹰": 4909,
      "鹿": 4910,
      "麋": 4911,
      "麒": 4912,
      "麓": 4913,
      "麝": 4914,
      "麟": 4915,
      "麦": 4916,
      "麻": 4917,
      "麾": 4918,
      "黄": 4919,
      "黍": 4920,
      "黎": 4921,
      "黏": 4922,
      "黑": 4923,
      "黔": 4924,
      "默": 4925,
      "黙": 4926,
      "黛": 4927,
      "黝": 4928,
      "黠": 4929,
      "黢": 4930,
      "黯": 4931,
      "鼍": 4932,
      "鼎": 4933,
      "鼓": 4934,
      "鼠": 4935,
      "鼬": 4936,
      "鼻": 4937,
      "鼾": 4938,
      "齁": 4939,
      "齐": 4940,
      "齑": 4941,
      "齿": 4942,
      "龄": 4943,
      "龇": 4944,
      "龈": 4945,
      "龊": 4946,
      "龌": 4947,
      "龙": 4948,
      "龚": 4949,
      "龛": 4950,
      "龟": 4951,
      "！": 4952,
      "（": 4953,
      "）": 4954,
      "，": 4955,
      "：": 4956,
      "；": 4957,
      "？": 4958,
      "～": 4959,
      "自己": 4960,
      "什么": 4961,
      "没有": 4962,
      "已经": 4963,
      "一个": 4964,
      "叶寒": 4965,
      "庆尘": 4966,
      "现在": 4967,
      "他们": 4968,
      "唐三": 4969,
      "了一": 4970,
      "这个": 4971,
      "就是": 4972,
      "时候": 4973,
      "知道": 4974,
      "到了": 4975,
      "不是": 4976,
      "可以": 4977,
      "我们": 4978,
      "怎么": 4979,
      "时间": 4980,
      "他的": 4981,
      "起来": 4982,
      "开始": 4983,
      "的时候": 4984,
      "还是": 4985,
      "还有": 4986,
      "出来": 4987,
      "这一": 4988,
      "如果": 4989,
      "说道": 4990,
      "都是": 4991,
      "桑非": 4992,
      "桑非晚": 4993,
      "因为": 4994,
      "直播": 4995,
      "之后": 4996,
      "所以": 4997,
      "事情": 4998,
      "的人": 4999,
      "观众": 5000,
      "也不": 5001,
      "这么": 5002,
      "……": 5003,
      "这里": 5004,
      "你们": 5005,
      "也是": 5006,
      "可能": 5007,
      "自己的": 5008,
      "下来": 5009,
      "选手": 5010,
      "看到": 5011,
      "这样": 5012,
      "大妖": 5013,
      "然后": 5014,
      "小柒": 5015,
      "此时": 5016,
      "大的": 5017,
      "一些": 5018,
      "上的": 5019,
      "世界": 5020,
      "看着": 5021,
      "公子": 5022,
      "感觉": 5023,
      "那么": 5024,
      "真的": 5025,
      "不会": 5026,
      "发现": 5027,
      "有人": 5028,
      "苏小柒": 5029,
      "之前": 5030,
      "大家": 5031,
      "应该": 5032,
      "美公子": 5033,
      "虽然": 5034,
      "不过": 5035,
      "但是": 5036,
      "继续": 5037,
      "觉得": 5038,
      "不能": 5039,
      "只是": 5040,
      "的话": 5041,
      "有些": 5042,
      "东西": 5043,
      "这些": 5044,
      "能够": 5045,
      "大妖皇": 5046,
      "很多": 5047,
      "直接": 5048,
      "这是": 5049,
      "当中": 5050,
      "之中": 5051,
      "一直": 5052,
      "的一": 5053,
      "这种": 5054,
      "里的": 5055,
      "情况": 5056,
      "不知道": 5057,
      "甚至": 5058,
      "过来": 5059,
      "出现": 5060,
      "身体": 5061,
      "直播间": 5062,
      "需要": 5063,
      "其实": 5064,
      "血脉": 5065,
      "肯定": 5066,
      "两人": 5067,
      "的事情": 5068,
      "想要": 5069,
      "那个": 5070,
      "对方": 5071,
      "问题": 5072,
      "一样": 5073,
      "一下": 5074,
      "今天": 5075,
      "像是": 5076,
      "有一": 5077,
      "观众们": 5078,
      "这边": 5079,
      "突然": 5080,
      "的是": 5081,
      "所有": 5082,
      "张浩": 5083,
      "就在": 5084,
      "比赛": 5085,
      "里面": 5086,
      "为了": 5087,
      "身上": 5088,
      "一次": 5089,
      "神代": 5090,
      "非常": 5091,
      "地方": 5092,
      "咱们": 5093,
      "一起": 5094,
      "我的": 5095,
      "北冥": 5096,
      "全都": 5097,
      "带着": 5098,
      "冷风": 5099,
      "吉尔": 5100,
      "哈哈": 5101,
      "你的": 5102,
      "出了": 5103,
      "可是": 5104,
      "人的": 5105,
      "为什么": 5106,
      "其他": 5107,
      "都不": 5108,
      "而且": 5109,
      "节目": 5110,
      "并且": 5111,
      "整个": 5112,
      "俞北冥": 5113,
      "算是": 5114,
      "想到": 5115,
      "来的": 5116,
      "..": 5117,
      "来说": 5118,
      "一定": 5119,
      "过去": 5120,
      "正在": 5121,
      "来了": 5122,
      "两个": 5123,
      "最后": 5124,
      "那些": 5125,
      "一边": 5126,
      "存在": 5127,
      "自然": 5128,
      "准备": 5129,
      "人类": 5130,
      "办法": 5131,
      "不要": 5132,
      "对于": 5133,
      "声音": 5134,
      "也没": 5135,
      "节目组": 5136,
      "老板": 5137,
      "当然": 5138,
      "离开": 5139,
      "她的": 5140,
      "看看": 5141,
      "是一": 5142,
      "皇者": 5143,
      "只有": 5144,
      "根本": 5145,
      "好了": 5146,
      "成了": 5147,
      "这位": 5148,
      "能力": 5149,
      "好的": 5150,
      "似乎": 5151,
      "大黄": 5152,
      "这样的": 5153,
      "张浩然": 5154,
      "而是": 5155,
      "在了": 5156,
      "了一下": 5157,
      "了起来": 5158,
      "大师": 5159,
      "第一": 5160,
      "色的": 5161,
      "祖庭": 5162,
      "瞬间": 5163,
      "神州": 5164,
      "孔雀": 5165,
      "要是": 5166,
      "生命": 5167,
      "无法": 5168,
      "看向": 5169,
      "战斗": 5170,
      "不少": 5171,
      "只能": 5172,
      "还在": 5173,
      "孩子": 5174,
      "神州国": 5175,
      "一点": 5176,
      "不到": 5177,
      "禁忌": 5178,
      "出去": 5179,
      "影子": 5180,
      "问道": 5181,
      "的时间": 5182,
      "它们": 5183,
      "都在": 5184,
      "竟然": 5185,
      "下一": 5186,
      "不断": 5187,
      "发生": 5188,
      "的情况": 5189,
      "刚才": 5190,
      "一般": 5191,
      "住了": 5192,
      "就会": 5193,
      "精神": 5194,
      "赶紧": 5195,
      "变得": 5196,
      "走了": 5197,
      "城市": 5198,
      "忽然": 5199,
      "面的": 5200,
      "顿时": 5201,
      "十分": 5202,
      "刚刚": 5203,
      "同时": 5204,
      "有点": 5205,
      "哪怕": 5206,
      "进行": 5207,
      "面前": 5208,
      "都没": 5209,
      "如此": 5210,
      "叶寒的": 5211,
      "眼睛": 5212,
      "任何": 5213,
      "完全": 5214,
      "天狐": 5215,
      "的那": 5216,
      "都没有": 5217,
      "回来": 5218,
      "居然": 5219,
      "好像": 5220,
      "死了": 5221,
      "终于": 5222,
      "族的": 5223,
      "进入": 5224,
      "去了": 5225,
      "这次": 5226,
      "本来": 5227,
      "大量": 5228,
      "绝对": 5229,
      "出一": 5230,
      "找到": 5231,
      "仿佛": 5232,
      "则是": 5233,
      "有什么": 5234,
      "那边": 5235,
      "接下来": 5236,
      "中的": 5237,
      "之间": 5238,
      "很快": 5239,
      "比较": 5240,
      "这时": 5241,
      "岛上": 5242,
      "看了": 5243,
      "多的": 5244,
      "并没有": 5245,
      "真正": 5246,
      "就不": 5247,
      "实力": 5248,
      "的地方": 5249,
      "距离": 5250,
      "以为": 5251,
      "机会": 5252,
      "重要": 5253,
      "站在": 5254,
      "雪雪": 5255,
      "有了": 5256,
      "只要": 5257,
      "不住": 5258,
      "危险": 5259,
      "希望": 5260,
      "还没": 5261,
      "力量": 5262,
      "感受": 5263,
      "老师": 5264,
      "之力": 5265,
      "心里": 5266,
      "结果": 5267,
      "上了": 5268,
      "毕竟": 5269,
      "明白": 5270,
      "坐在": 5271,
      "多了": 5272,
      "神识": 5273,
      "也都": 5274,
      "于是": 5275,
      "并不": 5276,
      "样子": 5277,
      "身边": 5278,
      "就能": 5279,
      "工作": 5280,
      "重新": 5281,
      "方向": 5282,
      "在这里": 5283,
      "他俩": 5284,
      "白俊": 5285,
      "遇到": 5286,
      "画面": 5287,
      "下去": 5288,
      "喜欢": 5289,
      "速度": 5290,
      "多少": 5291,
      "来到": 5292,
      "点头": 5293,
      "下的": 5294,
      "张雪雪": 5295,
      "它的": 5296,
      "给我": 5297,
      "就算": 5298,
      "更加": 5299,
      "以后": 5300,
      "房子": 5301,
      "意思": 5302,
      "的大": 5303,
      "的声音": 5304,
      "这只": 5305,
      "周围": 5306,
      "不了": 5307,
      "彻底": 5308,
      "修炼": 5309,
      "这一次": 5310,
      "这件": 5311,
      "李叔": 5312,
      "李叔同": 5313,
      "那是": 5314,
      "悟尘": 5315,
      "才能": 5316,
      "尼古": 5317,
      "清楚": 5318,
      "能量": 5319,
      "容易": 5320,
      "悟尘大师": 5321,
      "气息": 5322,
      "漂亮": 5323,
      "让他": 5324,
      "尼古拉": 5325,
      "还要": 5326,
      "就已经": 5327,
      "空间": 5328,
      "给你": 5329,
      "此刻": 5330,
      "必须": 5331,
      "不用": 5332,
      "不好": 5333,
      "这才": 5334,
      "就要": 5335,
      "说着": 5336,
      "和苏小柒": 5337,
      "选择": 5338,
      "依旧": 5339,
      "说话": 5340,
      "明显": 5341,
      "似的": 5342,
      "还能": 5343,
      "着一": 5344,
      "几乎": 5345,
      "成为": 5346,
      "没想到": 5347,
      "人员": 5348,
      "说的": 5349,
      "所有人": 5350,
      "也有": 5351,
      "元素": 5352,
      "攻击": 5353,
      "原本": 5354,
      "不得": 5355,
      "至于": 5356,
      "00": 5357,
      "听到": 5358,
      "影响": 5359,
      "笑道": 5360,
      "结束": 5361,
      "曾经": 5362,
      "关系": 5363,
      "天精": 5364,
      "家伙": 5365,
      "几个": 5366,
      "口气": 5367,
      "告诉": 5368,
      "行者": 5369,
      "随着": 5370,
      "人家": 5371,
      "天精皇": 5372,
      "是不是": 5373,
      "朋友": 5374,
      "蓝金": 5375,
      "他们的": 5376,
      "地上": 5377,
      "一眼": 5378,
      "旁边": 5379,
      "部分": 5380,
      "生活": 5381,
      "确实": 5382,
      "男人": 5383,
      "回去": 5384,
      "是在": 5385,
      "退赛": 5386,
      "开了": 5387,
      "提升": 5388,
      "神代云": 5389,
      "就像是": 5390,
      "第二": 5391,
      "那就": 5392,
      "手机": 5393,
      "也没有": 5394,
      "休息": 5395,
      "笑着": 5396,
      "是不": 5397,
      "唐三的": 5398,
      "是什么": 5399,
      "大量的": 5400,
      "妖怪": 5401,
      "心中": 5402,
      "通过": 5403,
      "面对": 5404,
      "哪里": 5405,
      "是个": 5406,
      "晚上": 5407,
      "都会": 5408,
      "大妖王": 5409,
      "一声": 5410,
      "简单": 5411,
      "空中": 5412,
      "恐怕": 5413,
      "如何": 5414,
      "其他的": 5415,
      "状态": 5416,
      "自身": 5417,
      "我也": 5418,
      "叶寒和苏小柒": 5419,
      "都有": 5420,
      "立马": 5421,
      "再次": 5422,
      "食物": 5423,
      "庆氏": 5424,
      "其中": 5425,
      "骑士": 5426,
      "的东西": 5427,
      "实在": 5428,
      "的感觉": 5429,
      "早就": 5430,
      "一切": 5431,
      "愿意": 5432,
      "未来": 5433,
      "目光": 5434,
      "身份": 5435,
      "差不": 5436,
      "发出": 5437,
      "消息": 5438,
      "黄金": 5439,
      "对手": 5440,
      "直播间当中": 5441,
      "说了": 5442,
      "过了": 5443,
      "儿子": 5444,
      "那里": 5445,
      "强大的": 5446,
      "看到了": 5447,
      "到底": 5448,
      "却是": 5449,
      "就可以": 5450,
      "李光": 5451,
      "了一些": 5452,
      "层次": 5453,
      "的存在": 5454,
      "那一": 5455,
      "最终": 5456,
      "了个": 5457,
      "小心": 5458,
      "嘉里": 5459,
      "在这": 5460,
      "小时": 5461,
      "担心": 5462,
      "一个人": 5463,
      "出来的": 5464,
      "以前": 5465,
      "也就": 5466,
      "意识": 5467,
      "外面": 5468,
      "眼神": 5469,
      "主播": 5470,
      "越来": 5471,
      "越来越": 5472,
      "的小": 5473,
      "或者": 5474,
      "还不": 5475,
      "都已经": 5476,
      "获得": 5477,
      "我就": 5478,
      "组织": 5479,
      "应该是": 5480,
      "下了": 5481,
      "位置": 5482,
      "倒是": 5483,
      "巨大的": 5484,
      "会有": 5485,
      "女孩": 5486,
      "我是": 5487,
      "强大": 5488,
      "大陆": 5489,
      "当初": 5490,
      "号城市": 5491,
      "之地": 5492,
      "拥有": 5493,
      "不同": 5494,
      "家里": 5495,
      "消失": 5496,
      "学院": 5497,
      "老虎": 5498,
      "真是": 5499,
      "都能": 5500,
      "基本": 5501,
      "强者": 5502,
      "女人": 5503,
      "或许": 5504,
      "身后": 5505,
      "变化": 5506,
      "睡觉": 5507,
      "动物": 5508,
      "妈妈": 5509,
      "相当": 5510,
      "一只": 5511,
      "电话": 5512,
      "后来": 5513,
      "之下": 5514,
      "个人": 5515,
      "树妖": 5516,
      "打算": 5517,
      "让我": 5518,
      "秧秧": 5519,
      "之外": 5520,
      "恢复": 5521,
      "每天": 5522,
      "跟着": 5523,
      "都要": 5524,
      "然而": 5525,
      "上去": 5526,
      "木屋": 5527,
      "比如": 5528,
      "一位": 5529,
      "烙印": 5530,
      "年轻": 5531,
      "白虎": 5532,
      "国的": 5533,
      "处理": 5534,
      "好好": 5535,
      "正常": 5536,
      "注意": 5537,
      "的样子": 5538,
      "不然": 5539,
      "光芒": 5540,
      "渐渐": 5541,
      "了吗": 5542,
      "水晶": 5543,
      "回到": 5544,
      "除了": 5545,
      "了下来": 5546,
      "你是": 5547,
      "普通": 5548,
      "长老": 5549,
      "脸上": 5550,
      "难道": 5551,
      "他也": 5552,
      "成功": 5553,
      "制作": 5554,
      "过的": 5555,
      "前进": 5556,
      "也不知道": 5557,
      "工兵": 5558,
      "工兵铲": 5559,
      "目前": 5560,
      "侦探": 5561,
      "的手": 5562,
      "尤其": 5563,
      "那位": 5564,
      "....": 5565,
      "作为": 5566,
      "在他": 5567,
      "不行": 5568,
      "荒野": 5569,
      "九天": 5570,
      "摇头": 5571,
      "控制": 5572,
      "猫侦探": 5573,
      "过程": 5574,
      "这个时候": 5575,
      "家长": 5576,
      "本身": 5577,
      "蓝金树": 5578,
      "反应": 5579,
      "不错": 5580,
      "一旦": 5581,
      "鳄鱼": 5582,
      "时间行者": 5583,
      "段时间": 5584,
      "而已": 5585,
      "就算是": 5586,
      "也会": 5587,
      "几分": 5588,
      "山洞": 5589,
      "他是": 5590,
      "子的": 5591,
      "得到": 5592,
      "明天": 5593,
      "一名": 5594,
      "无论": 5595,
      "。】": 5596,
      "成员": 5597,
      "出手": 5598,
      "女儿": 5599,
      "水蚺": 5600,
      "名字": 5601,
      "运气": 5602,
      "了一个": 5603,
      "毫无": 5604,
      "在一起": 5605,
      "10": 5606,
      "出现在": 5607,
      "忍不住": 5608,
      "更是": 5609,
      "原来": 5610,
      "刘德": 5611,
      "刘德柱": 5612,
      "解释": 5613,
      "禁忌之地": 5614,
      "给他": 5615,
      "各种": 5616,
      "使用": 5617,
      "放心": 5618,
      "认为": 5619,
      "尸体": 5620,
      "巨人": 5621,
      "怎么办": 5622,
      "衣服": 5623,
      "现在的": 5624,
      "ar": 5625,
      "眼前": 5626,
      "修为": 5627,
      "相信": 5628,
      "组选手": 5629,
      "ard": 5630,
      "Zard": 5631,
      "起了": 5632,
      "没什么": 5633,
      "看见": 5634,
      "少年": 5635,
      "想了": 5636,
      "进了": 5637,
      "快速": 5638,
      "也就是": 5639,
      "完了": 5640,
      "很多人": 5641,
      "别的": 5642,
      "绿水蚺": 5643,
      "全部": 5644,
      "决定": 5645,
      "昨天": 5646,
      "感觉到": 5647,
      "别人": 5648,
      "平静": 5649,
      "新的": 5650,
      "不敢": 5651,
      "完成": 5652,
      "好奇": 5653,
      "寻找": 5654,
      "禁忌物": 5655,
      "粉丝": 5656,
      "说是": 5657,
      "不想": 5658,
      "吃了": 5659,
      "他就": 5660,
      "厉害": 5661,
      "子里": 5662,
      "加上": 5663,
      "都被": 5664,
      "天狐大妖皇": 5665,
      "张浩轩": 5666,
      "那就是": 5667,
      "妖族": 5668,
      "我要": 5669,
      "是有": 5670,
      "立刻": 5671,
      "冰纪": 5672,
      "有没有": 5673,
      "等着": 5674,
      "说不": 5675,
      "安全": 5676,
      "父亲": 5677,
      "但他": 5678,
      "此时的": 5679,
      "一道": 5680,
      "确定": 5681,
      "死亡": 5682,
      "的说道": 5683,
      "李氏": 5684,
      "的看着": 5685,
      "学生": 5686,
      "区域": 5687,
      "程度": 5688,
      "看起来": 5689,
      "武冰纪": 5690,
      "特别": 5691,
      "直到": 5692,
      "句话": 5693,
      "几天": 5694,
      "比尔": 5695,
      "看来": 5696,
      "还没有": 5697,
      "默默": 5698,
      "恐怖": 5699,
      "维克": 5700,
      "——": 5701,
      "原因": 5702,
      "如今": 5703,
      "嘉里城": 5704,
      "吃的": 5705,
      "方面": 5706,
      "缓缓": 5707,
      "能不能": 5708,
      "解决": 5709,
      "地面": 5710,
      "手里": 5711,
      "今晚": 5712,
      "神器": 5713,
      "维克托": 5714,
      "既然": 5715,
      "真正的": 5716,
      "属于": 5717,
      "了吧": 5718,
      "努力": 5719,
      "坚持": 5720,
      "读白": 5721,
      "全身": 5722,
      "看不": 5723,
      "背后": 5724,
      "脑袋": 5725,
      "传来": 5726,
      "帮助": 5727,
      "进去": 5728,
      "估计": 5729,
      "来到了": 5730,
      "足够": 5731,
      "最近": 5732,
      "出现了": 5733,
      "打开": 5734,
      "基地": 5735,
      "却见": 5736,
      "样的": 5737,
      "前方": 5738,
      "也在": 5739,
      "一直在": 5740,
      "掌控": 5741,
      "等待": 5742,
      "竟是": 5743,
      "十多": 5744,
      "大了": 5745,
      "收获": 5746,
      "当时": 5747,
      "尤其是": 5748,
      "一条": 5749,
      "不死": 5750,
      "杀了": 5751,
      "上面": 5752,
      "不可能": 5753,
      "里世界": 5754,
      "家人": 5755,
      "一种": 5756,
      "他在": 5757,
      "房间": 5758,
      "赶忙": 5759,
      "狮虎": 5760,
      "岛屿": 5761,
      "按照": 5762,
      "也能": 5763,
      "上次": 5764,
      "队伍": 5765,
      "飞艇": 5766,
      "的选手": 5767,
      "慢慢": 5768,
      "部队": 5769,
      "浮空": 5770,
      "视频": 5771,
      "出来了": 5772,
      "不对": 5773,
      "下一刻": 5774,
      "奇怪": 5775,
      "否则": 5776,
      "讨论": 5777,
      "只不过": 5778,
      "等到": 5779,
      "也很": 5780,
      "后面": 5781,
      "并不是": 5782,
      "表情": 5783,
      "计划": 5784,
      "黑熊": 5785,
      "师父": 5786,
      "修罗": 5787,
      "身上的": 5788,
      "差不多": 5789,
      "孔雀大妖王": 5790,
      "家长会": 5791,
      "之类": 5792,
      "作用": 5793,
      "这个世界": 5794,
      "给了": 5795,
      "那种": 5796,
      "三个": 5797,
      "但却": 5798,
      "的力量": 5799,
      "突破": 5800,
      "一个个": 5801,
      "会不会": 5802,
      "让人": 5803,
      "所在": 5804,
      "精神力": 5805,
      "不管": 5806,
      "风暴": 5807,
      "她们": 5808,
      "妖怪族": 5809,
      "第一次": 5810,
      "白虎大妖皇": 5811,
      "说什么": 5812,
      "传奇": 5813,
      "骤然": 5814,
      "才行": 5815,
      "这一幕": 5816,
      "朝着": 5817,
      "树祖": 5818,
      "一天": 5819,
      "变成了": 5820,
      "无比": 5821,
      "气运": 5822,
      "点了": 5823,
      "小的": 5824,
      "微微": 5825,
      "拍卖": 5826,
      "这两": 5827,
      "弹幕": 5828,
      "就行": 5829,
      "玩意": 5830,
      "到的": 5831,
      "疯狂": 5832,
      "变成": 5833,
      "位面": 5834,
      "远处": 5835,
      "也要": 5836,
      "种族": 5837,
      "出的": 5838,
      "小姐": 5839,
      "就有": 5840,
      "族长": 5841,
      "他已经": 5842,
      "公爵": 5843,
      "果然": 5844,
      "脸色": 5845,
      "金刚": 5846,
      "想了想": 5847,
      "反正": 5848,
      "入了": 5849,
      "烈的": 5850,
      "生的": 5851,
      "附近": 5852,
      "漂亮国": 5853,
      "金色": 5854,
      "多久": 5855,
      "之上": 5856,
      "等等": 5857,
      "罗万": 5858,
      "我们的": 5859,
      "剩下": 5860,
      "路上": 5861,
      "做的": 5862,
      "桑非晚道": 5863,
      "罗万涯": 5864,
      "让你": 5865,
      "身影": 5866,
      "浮空飞艇": 5867,
      "麻烦": 5868,
      "白昼": 5869,
      "大概": 5870,
      "你要": 5871,
      "也不是": 5872,
      "支持": 5873,
      "规则": 5874,
      "的一切": 5875,
      "不太": 5876,
      "会儿": 5877,
      "肯定是": 5878,
      "意外": 5879,
      "没事": 5880,
      "死的": 5881,
      "的确": 5882,
      "体内": 5883,
      "回家": 5884,
      "满了": 5885,
      "在一": 5886,
      "经历": 5887,
      "什么时候": 5888,
      "蓝金树族": 5889,
      "士兵": 5890,
      "许多": 5891,
      "了过来": 5892,
      "可惜": 5893,
      "我觉得": 5894,
      "导致": 5895,
      "随之": 5896,
      "听说": 5897,
      "发现了": 5898,
      "他现在": 5899,
      "盯着": 5900,
      "依然": 5901,
      "兔子": 5902,
      "方式": 5903,
      "简直": 5904,
      "长青": 5905,
      "大猫": 5906,
      "差点": 5907,
      "庆尘的": 5908,
      "味道": 5909,
      "心的": 5910,
      "植物": 5911,
      "怎么样": 5912,
      "受到": 5913,
      "内部": 5914,
      "在那": 5915,
      "哥哥": 5916,
      "就连": 5917,
      "天阳": 5918,
      "的能力": 5919,
      "没办法": 5920,
      "一步": 5921,
      "回头": 5922,
      "联邦": 5923,
      "半神": 5924,
      "感受到": 5925,
      "呼吸": 5926,
      "比如说": 5927,
      "就被": 5928,
      "青青": 5929,
      "情报": 5930,
      "是因为": 5931,
      "才是": 5932,
      "起身": 5933,
      "大力": 5934,
      "南庚": 5935,
      "南庚辰": 5936,
      "至少": 5937,
      "第三": 5938,
      "转身": 5939,
      "掉了": 5940,
      "正好": 5941,
      "这么多": 5942,
      "同样": 5943,
      "灵犀": 5944,
      "！】": 5945,
      "我想": 5946,
      "纷纷": 5947,
      "野猪": 5948,
      "事实": 5949,
      "他还": 5950,
      "李长青": 5951,
      "也不会": 5952,
      "无尘": 5953,
      "的观众": 5954,
      "万一": 5955,
      "靠近": 5956,
      "尝试": 5957,
      "特殊": 5958,
      "居士": 5959,
      "朱传奇": 5960,
      "国家": 5961,
      "的速度": 5962,
      "无尘居士": 5963,
      "让她": 5964,
      "观察": 5965,
      "这就是": 5966,
      "很多观众": 5967,
      "穿越": 5968,
      "是我": 5969,
      "的方向": 5970,
      "对了": 5971,
      "卢瑟": 5972,
      "干什么": 5973,
      "接着": 5974,
      "吸收": 5975,
      "参加": 5976,
      "走去": 5977,
      "了一眼": 5978,
      "笑了": 5979,
      "而出": 5980,
      "哪怕是": 5981,
      "大部分": 5982,
      "的血脉": 5983,
      "以及": 5984,
      "不可": 5985,
      "点点头": 5986,
      "都很": 5987,
      "了啊": 5988,
      "安排": 5989,
      "不起": 5990,
      "今秋": 5991,
      "我不": 5992,
      "保护": 5993,
      "有可能": 5994,
      "何今秋": 5995,
      "到时候": 5996,
      "年的": 5997,
      "被人": 5998,
      "风狼": 5999,
      "憨憨": 6000,
      "神级": 6001,
      "认识": 6002,
      "医院": 6003,
      "吃饭": 6004,
      "这也是": 6005,
      "已经是": 6006,
      "神代云罗": 6007,
      "黑色": 6008,
      "两名": 6009,
      "传承": 6010,
      "的道": 6011,
      "见过": 6012,
      "门口": 6013,
      "相比": 6014,
      "网友": 6015,
      "此时此刻": 6016,
      "淡淡": 6017,
      "生物": 6018,
      "老人": 6019,
      "之一": 6020,
      "桑非晚的": 6021,
      "表世界": 6022,
      "18": 6023,
      "抵达": 6024,
      "经过": 6025,
      "记得": 6026,
      "剑圣": 6027,
      "高兴": 6028,
      "凤凰": 6029,
      "小牛": 6030,
      "地道": 6031,
      "是否": 6032,
      "的天": 6033,
      "爆发": 6034,
      "那么多": 6035,
      "接受": 6036,
      "另外": 6037,
      "走到": 6038,
      "开口": 6039,
      "明明": 6040,
      "有个": 6041,
      "着急": 6042,
      "摇摇头": 6043,
      "我还": 6044,
      "有着": 6045,
      "陈氏": 6046,
      "收拾": 6047,
      "哈哈哈": 6048,
      "的地": 6049,
      "手中": 6050,
      "不知": 6051,
      "仔细": 6052,
      "小憨憨": 6053,
      "拿着": 6054,
      "暂时": 6055,
      "发生了": 6056,
      "所有的": 6057,
      "基因": 6058,
      "探索": 6059,
      "修行": 6060,
      "进来": 6061,
      "小黑": 6062,
      "属性": 6063,
      "人都": 6064,
      "情绪": 6065,
      "必胜": 6066,
      "笑容": 6067,
      "生命能量": 6068,
      "动手": 6069,
      "只见": 6070,
      "的心": 6071,
      "精怪": 6072,
      "这件事": 6073,
      "杨青青": 6074,
      "长的": 6075,
      "我现在": 6076,
      "唐红": 6077,
      "奶奶": 6078,
      "海边": 6079,
      "融合": 6080,
      "双方": 6081,
      "在地上": 6082,
      "工作人员": 6083,
      "左右": 6084,
      "天狼": 6085,
      "彤雲": 6086,
      "连线": 6087,
      "母亲": 6088,
      "猎物": 6089,
      "随便": 6090,
      "是谁": 6091,
      "上来": 6092,
      "传送": 6093,
      "信息": 6094,
      "我会": 6095,
      "记忆": 6096,
      "的神": 6097,
      "的身体": 6098,
      "的位置": 6099,
      "不再": 6100,
      "是要": 6101,
      "负责": 6102,
      "一头": 6103,
      "更多的": 6104,
      "已经被": 6105,
      "动了": 6106,
      "这件事情": 6107,
      "辈子": 6108,
      "居住": 6109,
      "黑暗": 6110,
      "帮忙": 6111,
      "有多": 6112,
      "来自": 6113,
      "模样": 6114,
      "中年": 6115,
      "即便": 6116,
      "范围": 6117,
      "蚯蚓": 6118,
      "但也": 6119,
      "好几": 6120,
      "提前": 6121,
      "物资": 6122,
      "不仅": 6123,
      "龙族": 6124,
      "一件": 6125,
      "用的": 6126,
      "最大的": 6127,
      "消耗": 6128,
      "点了点头": 6129,
      "是一个": 6130,
      "庆一": 6131,
      "伤口": 6132,
      "合适": 6133,
      "小队": 6134,
      "的光": 6135,
      "12": 6136,
      "？！": 6137,
      "回答": 6138,
      "是真的": 6139,
      "怀疑": 6140,
      "一片": 6141,
      "疑惑": 6142,
      "有所": 6143,
      "意味": 6144,
      "了出来": 6145,
      "凭借": 6146,
      "财团": 6147,
      "起码": 6148,
      "不断的": 6149,
      "但现在": 6150,
      "即将": 6151,
      "这时候": 6152,
      "关于": 6153,
      "还会": 6154,
      "不上": 6155,
      "逐渐": 6156,
      "有的": 6157,
      "了他": 6158,
      "爸爸": 6159,
      "？】": 6160,
      "天阳天精皇": 6161,
      "你就": 6162,
      "吞噬": 6163,
      "紧张": 6164,
      "一场": 6165,
      "同学": 6166,
      "直升": 6167,
      "凝聚": 6168,
      "兄弟": 6169,
      "响起": 6170,
      "在岛上": 6171,
      "安宇": 6172,
      "打赏": 6173,
      "晚晚": 6174,
      "疑问": 6175,
      "分钟": 6176,
      "改变": 6177,
      "不说": 6178,
      "没人": 6179,
      "研究": 6180,
      "联系": 6181,
      "双手": 6182,
      "冷风和": 6183,
      "你说": 6184,
      "回来了": 6185,
      "屏幕": 6186,
      "用来": 6187,
      "产生": 6188,
      "反而": 6189,
      "天的": 6190,
      "千万": 6191,
      "渡劫": 6192,
      "目标": 6193,
      "嘴里": 6194,
      "说完": 6195,
      "徐安宇": 6196,
      "放在": 6197,
      "之间的": 6198,
      "行动": 6199,
      "一开始": 6200,
      "当年": 6201,
      "我在": 6202,
      "手里的": 6203,
      "远东": 6204,
      "郑远东": 6205,
      "全世界": 6206,
      "妻子": 6207,
      "昆仑": 6208,
      "着的": 6209,
      "见到": 6210,
      "陷阱": 6211,
      "胡小牛": 6212,
      "救援": 6213,
      "始终": 6214,
      "出门": 6215,
      "妞儿": 6216,
      "了两": 6217,
      "你怎么": 6218,
      "直升机": 6219,
      "另一边": 6220,
      "关键": 6221,
      "高手": 6222,
      "意味着": 6223,
      "大羽": 6224,
      "照片": 6225,
      "监狱": 6226,
      "跟我": 6227,
      "孔雀妖族": 6228,
      "愣了一下": 6229,
      "脚步": 6230,
      "这玩意": 6231,
      "不及": 6232,
      "不容易": 6233,
      "巅峰": 6234,
      "网上": 6235,
      "靳淼": 6236,
      "领域": 6237,
      "对他": 6238,
      "叶寒这边": 6239,
      "关注": 6240,
      "战争": 6241,
      "这场": 6242,
      "神秘": 6243,
      "大家都": 6244,
      "离开了": 6245,
      "一阵": 6246,
      "轻轻": 6247,
      "迅速": 6248,
      "霓虹": 6249,
      "活动": 6250,
      "我都": 6251,
      "找到了": 6252,
      "没了": 6253,
      "必胜山": 6254,
      "效果": 6255,
      "杀手": 6256,
      "级血脉": 6257,
      "队友": 6258,
      "前面": 6259,
      "要知道": 6260,
      "放弃": 6261,
      "不在": 6262,
      "先生": 6263,
      "正是": 6264,
      "气的": 6265,
      "留下": 6266,
      "这里的": 6267,
      "眉头": 6268,
      "知道了": 6269,
      "熟悉": 6270,
      "挣扎": 6271,
      "身形": 6272,
      "想象": 6273,
      "答应": 6274,
      "害怕": 6275,
      "很难": 6276,
      "老婆": 6277,
      "动作": 6278,
      "唯一": 6279,
      "看了一眼": 6280,
      "化为": 6281,
      "里面的": 6282,
      "就这么": 6283,
      "而来": 6284,
      "犹豫": 6285,
      "没有任何": 6286,
      "去找": 6287,
      "因此": 6288,
      "要塞": 6289,
      "才会": 6290,
      "真的是": 6291,
      "必须要": 6292,
      "一定会": 6293,
      "一块": 6294,
      "专门": 6295,
      "从来": 6296,
      "利用": 6297,
      "可怜": 6298,
      "彼此": 6299,
      "没错": 6300,
      "抬头": 6301,
      "故意": 6302,
      "前往": 6303,
      "时光": 6304,
      "秘密": 6305,
      "把他": 6306,
      "这也": 6307,
      "没有什么": 6308,
      "庆尘说道": 6309,
      "玄天": 6310,
      "A级": 6311,
      "落在": 6312,
      "干净": 6313,
      "来看": 6314,
      "又是": 6315,
      "想着": 6316,
      "的气息": 6317,
      "空气": 6318,
      "不如": 6319,
      "战场": 6320,
      "一笑": 6321,
      "随后": 6322,
      "可能会": 6323,
      "10号城市": 6324,
      "妖精": 6325,
      "期待": 6326,
      "机械": 6327,
      "生死": 6328,
      "网络": 6329,
      "让他们": 6330,
      "适合": 6331,
      "毫无疑问": 6332,
      "神剑": 6333,
      "城主": 6334,
      "最好的": 6335,
      "风哥": 6336,
      "第一时间": 6337,
      "一把": 6338,
      "有一个": 6339,
      "狙击": 6340,
      "低声": 6341,
      "你在": 6342,
      "惊讶": 6343,
      "露出": 6344,
      "一定要": 6345,
      "神州国的": 6346,
      "几乎是": 6347,
      "内心": 6348,
      "就像": 6349,
      "族人": 6350,
      "唐三道": 6351,
      "背包": 6352,
      "一口": 6353,
      "回到了": 6354,
      "永远": 6355,
      "的机会": 6356,
      "水晶大妖皇": 6357,
      "姐姐": 6358,
      "老鼠": 6359,
      "直播间里": 6360,
      "一人": 6361,
      "了不少": 6362,
      "太多": 6363,
      "很好": 6364,
      "参赛": 6365,
      "浓郁": 6366,
      "但我": 6367,
      "那样": 6368,
      "因为他": 6369,
      "笑着说道": 6370,
      "家族": 6371,
      "顺利": 6372,
      "如果是": 6373,
      "力气": 6374,
      "眼中": 6375,
      "蜘蛛": 6376,
      "定的": 6377,
      "岛上的": 6378,
      "幸运": 6379,
      "武器": 6380,
      "阴阳": 6381,
      "年轻人": 6382,
      "公司": 6383,
      "汉斯": 6384,
      "玄天功": 6385,
      "倒霉": 6386,
      "任务": 6387,
      "歇尔": 6388,
      "每次": 6389,
      "马歇尔": 6390,
      "保持": 6391,
      "这条": 6392,
      "确实是": 6393,
      "在这个": 6394,
      "用了": 6395,
      "节目组的": 6396,
      "说不定": 6397,
      "的就是": 6398,
      "看去": 6399,
      "方便": 6400,
      "了解": 6401,
      "给自己": 6402,
      "平时": 6403,
      "李恪": 6404,
      "理解": 6405,
      "聪明": 6406,
      "一根": 6407,
      "看了看": 6408,
      "穿着": 6409,
      "对付": 6410,
      "李彤雲": 6411,
      "其他人": 6412,
      "看上去": 6413,
      "全都是": 6414,
      "盖尔": 6415,
      "吸引": 6416,
      "实话": 6417,
      "释放": 6418,
      "闪烁": 6419,
      "也可以": 6420,
      "沉默": 6421,
      "子上": 6422,
      "条件": 6423,
      "阿比": 6424,
      "显然": 6425,
      "月儿": 6426,
      "阿比盖尔": 6427,
      "天空": 6428,
      "手环": 6429,
      "事实上": 6430,
      "一看": 6431,
      "官方": 6432,
      "的过程": 6433,
      "直播画面": 6434,
      "实际": 6435,
      "数量": 6436,
      "日子": 6437,
      "更多": 6438,
      "......": 6439,
      "想法": 6440,
      "两个人": 6441,
      "再一次": 6442,
      "前世": 6443,
      "救赎": 6444,
      "询问": 6445,
      "这一刻": 6446,
      "先前": 6447,
      "真纪": 6448,
      "要不然": 6449,
      "下午": 6450,
      "不见": 6451,
      "外的": 6452,
      "父母": 6453,
      "白色": 6454,
      "比赛结束": 6455,
      "天赋": 6456,
      "高的": 6457,
      "的事": 6458,
      "看得": 6459,
      "怎么可能": 6460,
      "也不能": 6461,
      "大妞儿": 6462,
      "晶凤": 6463,
      "回事": 6464,
      "学习": 6465,
      "这就": 6466,
      "家的": 6467,
      "带走": 6468,
      "无尽": 6469,
      "肖恩": 6470,
      "那时候": 6471,
      "主动": 6472,
      "判断": 6473,
      "周围的": 6474,
      "一路": 6475,
      "丈夫": 6476,
      "到现在": 6477,
      "压制": 6478,
      "好处": 6479,
      "所谓": 6480,
      "火焰": 6481,
      "的问题": 6482,
      "血脉之力": 6483,
      "只觉得": 6484,
      "守护": 6485,
      "了一声": 6486,
      "他要": 6487,
      "海神": 6488,
      "酒店": 6489,
      "鹿岛": 6490,
      "不算": 6491,
      "忘了": 6492,
      "大长老": 6493,
      "主要": 6494,
      "了几": 6495,
      "忘记": 6496,
      "插翅": 6497,
      "百多": 6498,
      "马斯": 6499,
      "托马斯": 6500,
      "陈余": 6501,
      "长得": 6502,
      "头发": 6503,
      "还好": 6504,
      "美公子的": 6505,
      "大佬": 6506,
      "淘汰": 6507,
      "亲自": 6508,
      "全力": 6509,
      "内的": 6510,
      "再加上": 6511,
      "出发": 6512,
      "就把": 6513,
      "最好": 6514,
      "这些人": 6515,
      "插翅虎": 6516,
      "强的": 6517,
      "两位": 6518,
      "所有人都": 6519,
      "一股": 6520,
      "一时间": 6521,
      "经常": 6522,
      "之门": 6523,
      "年纪": 6524,
      "心情": 6525,
      "意义": 6526,
      "证明": 6527,
      "不禁": 6528,
      "代表": 6529,
      "叹息": 6530,
      "红色": 6531,
      "帮我": 6532,
      "被他": 6533,
      "还得": 6534,
      "兴奋": 6535,
      "动着": 6536,
      "断了": 6537,
      "厨房": 6538,
      "思考": 6539,
      "接近": 6540,
      "谢谢": 6541,
      "到来": 6542,
      "干活": 6543,
      "是他": 6544,
      "显得": 6545,
      "直播手环": 6546,
      "价值": 6547,
      "大海": 6548,
      "战士": 6549,
      "舒服": 6550,
      "顺着": 6551,
      "起来了": 6552,
      "还有人": 6553,
      "的情况下": 6554,
      "成峰": 6555,
      "帮你": 6556,
      "无数": 6557,
      "而此时": 6558,
      "遭遇": 6559,
      "鬼魂": 6560,
      "刹那": 6561,
      "当他": 6562,
      "河马": 6563,
      "难以": 6564,
      "再说": 6565,
      "和他": 6566,
      "开启": 6567,
      "肚子": 6568,
      "其他选手": 6569,
      "重要的": 6570,
      "不一样": 6571,
      "圣山": 6572,
      "威胁": 6573,
      "狠狠": 6574,
      "考虑": 6575,
      "这不是": 6576,
      "默默的": 6577,
      "宛如": 6578,
      "我去": 6579,
      "痕迹": 6580,
      "痛苦": 6581,
      "随时": 6582,
      "白成峰": 6583,
      "妖王": 6584,
      "查看": 6585,
      "已经开始": 6586,
      "严重": 6587,
      "而去": 6588,
      "贝爷": 6589,
      "这一点": 6590,
      "下意识": 6591,
      "他又": 6592,
      "依诺": 6593,
      "的状态": 6594,
      "的尸体": 6595,
      "着他": 6596,
      "你了": 6597,
      "回归": 6598,
      "导演": 6599,
      "九阶": 6600,
      "天地": 6601,
      "奇异": 6602,
      "帝国": 6603,
      "杀人": 6604,
      "杀死": 6605,
      "表现": 6606,
      "首先": 6607,
      "大多": 6608,
      "哈哈哈哈": 6609,
      "你不": 6610,
      "值得": 6611,
      "觉醒": 6612,
      "动静": 6613,
      "头上": 6614,
      "有一些": 6615,
      "资源": 6616,
      "配合": 6617,
      "价格": 6618,
      "的那一": 6619,
      "号禁忌之地": 6620,
      "少女": 6621,
      "没能": 6622,
      "猩猩": 6623,
      "猴子": 6624,
      "要求": 6625,
      "精怪族": 6626,
      "跑了": 6627,
      "你能": 6628,
      "这份": 6629,
      "风刃": 6630,
      "妖精大陆": 6631,
      "我看": 6632,
      "我知道": 6633,
      "施展": 6634,
      "无人": 6635,
      "命运": 6636,
      "时刻": 6637,
      "昂纳": 6638,
      "莱昂纳": 6639,
      "家主": 6640,
      "王珩": 6641,
      "竞拍": 6642,
      "有一种": 6643,
      "察觉": 6644,
      "面上": 6645,
      "呵呵": 6646,
      "机器": 6647,
      "这两人": 6648,
      "防御": 6649,
      "之前的": 6650,
      "晶凤大妖皇": 6651,
      "受伤": 6652,
      "都给": 6653,
      "一大": 6654,
      "挑战": 6655,
      "持续": 6656,
      "的观众们": 6657,
      "紧接着": 6658,
      "这座": 6659,
      "飞行": 6660,
      "声道": 6661,
      "我已经": 6662,
      "神明": 6663,
      "从而": 6664,
      "你也": 6665,
      "做出": 6666,
      "冲击": 6667,
      "游戏": 6668,
      "燃烧": 6669,
      "之眼": 6670,
      "波动": 6671,
      "好像是": 6672,
      "很大": 6673,
      "指挥": 6674,
      "猜测": 6675,
      "承受": 6676,
      "可怕": 6677,
      "要不": 6678,
      "遇到了": 6679,
      "震惊": 6680,
      "空中要塞": 6681,
      "实在是": 6682,
      "为何": 6683,
      "子橙": 6684,
      "而起": 6685,
      "他们俩": 6686,
      "不死大妖皇": 6687,
      "格勒": 6688,
      "生气": 6689,
      "看的": 6690,
      "程子橙": 6691,
      "这个人": 6692,
      "只剩下": 6693,
      "不够": 6694,
      "二十": 6695,
      "别墅": 6696,
      "当做": 6697,
      "侯爵": 6698,
      "扎日": 6699,
      "活着": 6700,
      "诡异": 6701,
      "可能是": 6702,
      "好家伙": 6703,
      "是的": 6704,
      "的树": 6705,
      "伴随着": 6706,
      "参与": 6707,
      "继续前进": 6708,
      "一脸": 6709,
      "做到": 6710,
      "愤怒": 6711,
      "扎日格勒": 6712,
      "半个": 6713,
      "认真": 6714,
      "错了": 6715,
      "成皇": 6716,
      "的实力": 6717,
      "冠军": 6718,
      "出了一": 6719,
      "烈阳": 6720,
      "实际上": 6721,
      "另一个": 6722,
      "天天": 6723,
      "下一瞬": 6724,
      "一座": 6725,
      "天机": 6726,
      "意志": 6727,
      "社团": 6728,
      "风暴公爵": 6729,
      "一旁": 6730,
      "场的": 6731,
      "必然": 6732,
      "无声": 6733,
      "虎子": 6734,
      "主要是": 6735,
      "斗兽": 6736,
      "人类的": 6737,
      "冷风和李光": 6738,
      "压力": 6739,
      "失败": 6740,
      "想起": 6741,
      "超过": 6742,
      "我来": 6743,
      "是怎么": 6744,
      "有种": 6745,
      "这一切": 6746,
      "反应过来": 6747,
      "伤害": 6748,
      "无疑": 6749,
      "块钱": 6750,
      "很久": 6751,
      "藤蔓": 6752,
      "就开始": 6753,
      "落下": 6754,
      "训练": 6755,
      "就行了": 6756,
      "秦月儿": 6757,
      "血液": 6758,
      "了口气": 6759,
      "他自己": 6760,
      "金色的": 6761,
      "已经有": 6762,
      "想想": 6763,
      "成的": 6764,
      "篝火": 6765,
      "在自己": 6766,
      "石头": 6767,
      "两只": 6768,
      "在地": 6769,
      "找不到": 6770,
      "极其": 6771,
      "第四": 6772,
      "马上": 6773,
      "的气": 6774,
      "给她": 6775,
      "达到": 6776,
      "明白了": 6777,
      "笑了笑": 6778,
      "故里": 6779,
      "早已": 6780,
      "毫不": 6781,
      "足足": 6782,
      "如果不是": 6783,
      "今天的": 6784,
      "之所以": 6785,
      "年前": 6786,
      "整容": 6787,
      "电影": 6788,
      "老爷": 6789,
      "说过": 6790,
      "一会": 6791,
      "傀儡": 6792,
      "子弹": 6793,
      "让它": 6794,
      "资料": 6795,
      "对方的": 6796,
      "吉尔的": 6797,
      "最后一": 6798,
      "如同": 6799,
      "提醒": 6800,
      "桑小姐": 6801,
      "议论": 6802,
      "与此": 6803,
      "都可以": 6804,
      "人物": 6805,
      "命师": 6806,
      "张承": 6807,
      "为什么要": 6808,
      "大多数": 6809,
      "戏命师": 6810,
      "镜头": 6811,
      "不只是": 6812,
      "小亮": 6813,
      "极为": 6814,
      "热度": 6815,
      "一段时间": 6816,
      "去看": 6817,
      "定了": 6818,
      "激动": 6819,
      "都不知道": 6820,
      "你们的": 6821,
      "头顶": 6822,
      "小子": 6823,
      "就没有": 6824,
      "就好了": 6825,
      "必要": 6826,
      "等人": 6827,
      "走出": 6828,
      "集团": 6829,
      "与此同时": 6830,
      "悄悄": 6831,
      "每个": 6832,
      "一张": 6833,
      "下雨": 6834,
      "小美": 6835,
      "我感觉": 6836,
      "树上": 6837,
      "竹楼": 6838,
      "表示": 6839,
      "超凡": 6840,
      "三天": 6841,
      "要比": 6842,
      "来自于": 6843,
      "法阵": 6844,
      "大猩猩": 6845,
      "小女孩": 6846,
      "清晰": 6847,
      "热闹": 6848,
      "生怕": 6849,
      "若是": 6850,
      "充满了": 6851,
      "境界": 6852,
      "紫晶": 6853,
      "只需要": 6854,
      "小七": 6855,
      "相对": 6856,
      "还挺": 6857,
      "但这": 6858,
      "的目光": 6859,
      "不时": 6860,
      "做什么": 6861,
      "好事": 6862,
      "操作": 6863,
      "早饭": 6864,
      "李依诺": 6865,
      "虽说": 6866,
      "辛苦": 6867,
      "都快": 6868,
      "莱昂纳多": 6869,
      "格外": 6870,
      "做饭": 6871,
      "各位": 6872,
      "庆忌": 6873,
      "还真": 6874,
      "自然是": 6875,
      "纯粹": 6876,
      "还想": 6877,
      "远远": 6878,
      "保证": 6879,
      "结婚": 6880,
      "道理": 6881,
      "就在这时": 6882,
      "刺激": 6883,
      "无奈": 6884,
      "笑了起来": 6885,
      "豹子": 6886,
      "身旁": 6887,
      "战斗力": 6888,
      "也得": 6889,
      "但在": 6890,
      "回了": 6891,
      "我可以": 6892,
      "抬起": 6893,
      "颤抖": 6894,
      "的人类": 6895,
      "层次的": 6896,
      "之类的": 6897,
      "和你": 6898,
      "成为了": 6899,
      "抱着": 6900,
      "招呼": 6901,
      "江雪": 6902,
      "越发": 6903,
      "隐藏": 6904,
      "整个人": 6905,
      "意识到": 6906,
      "关闭": 6907,
      "右手": 6908,
      "接触": 6909,
      "目的": 6910,
      "解说": 6911,
      "别说": 6912,
      "在她": 6913,
      "对着": 6914,
      "带来的": 6915,
      "认可": 6916,
      "路远": 6917,
      "黑色的": 6918,
      "居住地": 6919,
      "不需要": 6920,
      "主人": 6921,
      "也都是": 6922,
      "厄运": 6923,
      "真实": 6924,
      "转头": 6925,
      "普通人": 6926,
      "也随之": 6927,
      "你去": 6928,
      "公主": 6929,
      "很有": 6930,
      "趁着": 6931,
      "一百": 6932,
      "前来": 6933,
      "叫做": 6934,
      "散发": 6935,
      "阵盘": 6936,
      "拍卖会": 6937,
      "哪个": 6938,
      "就没": 6939,
      "恐惧": 6940,
      "成就": 6941,
      "抓住": 6942,
      "覆盖": 6943,
      "除非": 6944,
      "肯定会": 6945,
      "瞬间就": 6946,
      "霓虹国": 6947,
      "也已经": 6948,
      "好不容易": 6949,
      "姑娘": 6950,
      "最多": 6951,
      "上一": 6952,
      "众人": 6953,
      "原地": 6954,
      "各自": 6955,
      "最为": 6956,
      "经验": 6957,
      "这家伙": 6958,
      "黑蜘蛛": 6959,
      "之色": 6960,
      "何况": 6961,
      "你想": 6962,
      "停下来": 6963,
      "靳淼林": 6964,
      "具体": 6965,
      "晚饭": 6966,
      "这片": 6967,
      "很快就": 6968,
      "坏了": 6969,
      "瓦西": 6970,
      "赫然": 6971,
      "走的": 6972,
      "难受": 6973,
      "修罗神剑": 6974,
      "太过": 6975,
      "的面": 6976,
      "躺在": 6977,
      "这段时间": 6978,
      "资格": 6979,
      "也没什么": 6980,
      "神代云合": 6981,
      "感情": 6982,
      "语气": 6983,
      "通讯": 6984,
      "做了": 6985,
      "却发现": 6986,
      "脑海": 6987,
      "李云": 6988,
      "皇之": 6989,
      "过去了": 6990,
      "一句": 6991,
      "他不": 6992,
      "你看": 6993,
      "学校": 6994,
      "庞大的": 6995,
      "心理": 6996,
      "战胜": 6997,
      "这话": 6998,
      "选手的": 6999,
      "主城": 7000,
      "可不是": 7001,
      "留在": 7002,
      "绝对是": 7003,
      "复杂": 7004,
      "想办法": 7005,
      "成长": 7006,
      "火塘": 7007,
      "的味道": 7008,
      "逃跑": 7009,
      "针对": 7010,
      "小白": 7011,
      "着自己的": 7012,
      "第一个": 7013,
      "这种事情": 7014,
      "分别": 7015,
      "屁股": 7016,
      "环境": 7017,
      "的原因": 7018,
      "还是要": 7019,
      "就在此时": 7020,
      "差不多了": 7021,
      "解释道": 7022,
      "自从": 7023,
      "试试": 7024,
      "走吧": 7025,
      "不出": 7026,
      "两天": 7027,
      "嘴巴": 7028,
      "强度": 7029,
      "延丰": 7030,
      "开心": 7031,
      "早上": 7032,
      "王延丰": 7033,
      "紫晶币": 7034,
      "中午": 7035,
      "办公": 7036,
      "后退": 7037,
      "微笑": 7038,
      "打了": 7039,
      "波顿": 7040,
      "蓝银": 7041,
      "一顿": 7042,
      "时不时": 7043,
      "节目组这边": 7044,
      "但如果": 7045,
      "到这里": 7046,
      "占皇之": 7047,
      "台上": 7048,
      "大口": 7049,
      "总是": 7050,
      "碎片": 7051,
      "庆尘在": 7052,
      "亨利": 7053,
      "稳定": 7054,
      "之海": 7055,
      "出事": 7056,
      "CE": 7057,
      "一时": 7058,
      "暴露": 7059,
      "继承": 7060,
      "交代": 7061,
      "会被": 7062,
      "是你": 7063,
      "暗魔": 7064,
      "更何况": 7065,
      "之中的": 7066,
      "不去": 7067,
      "完成了": 7068,
      "明星": 7069,
      "潘茂": 7070,
      "雷霆": 7071,
      "外面的": 7072,
      "我说": 7073,
      "材料": 7074,
      "的可能": 7075,
      "算了": 7076,
      "们的": 7077,
      "剩下的": 7078,
      "打量": 7079,
      "故事": 7080,
      "本事": 7081,
      "肩膀": 7082,
      "让自己": 7083,
      "贵宾": 7084,
      "进化": 7085,
      "青山": 7086,
      "静静": 7087,
      "也被": 7088,
      "了过去": 7089,
      "力的": 7090,
      "加入": 7091,
      "压迫": 7092,
      "将他": 7093,
      "拍品": 7094,
      "核心": 7095,
      "要说": 7096,
      "足以": 7097,
      "包括": 7098,
      "十二": 7099,
      "听着": 7100,
      "感谢": 7101,
      "深处": 7102,
      "妖神": 7103,
      "有关": 7104,
      "胳膊": 7105,
      "蓝海": 7106,
      "面色": 7107,
      "很清楚": 7108,
      "笼罩": 7109,
      "说实话": 7110,
      "了出去": 7111,
      "发展": 7112,
      "地下": 7113,
      "家里的": 7114,
      "掌握": 7115,
      "大斗兽": 7116,
      "碰撞": 7117,
      "唐三和": 7118,
      "怎么能": 7119,
      "允许": 7120,
      "在他的": 7121,
      "思索": 7122,
      "立马就": 7123,
      "超凡者": 7124,
      "他想": 7125,
      "兴趣": 7126,
      "我和": 7127,
      "我能": 7128,
      "老丘": 7129,
      "警察": 7130,
      "这句话": 7131,
      "怎么会": 7132,
      "老爷子": 7133,
      "出一个": 7134,
      "木偶": 7135,
      "生火": 7136,
      "白银": 7137,
      "的画面": 7138,
      "刹那间": 7139,
      "一趟": 7140,
      "巴图": 7141,
      "方的": 7142,
      "还以为": 7143,
      "分析": 7144,
      "溪流": 7145,
      "脖子": 7146,
      "计算": 7147,
      "了一口气": 7148,
      "你可": 7149,
      "午饭": 7150,
      "方法": 7151,
      "短时间": 7152,
      "最后的": 7153,
      "似乎是": 7154,
      "吃过": 7155,
      "干脆": 7156,
      "心疼": 7157,
      "楚辞": 7158,
      "眯眯": 7159,
      "红色的": 7160,
      "述职": 7161,
      "了一句": 7162,
      "妖神变": 7163,
      "当场": 7164,
      "真相": 7165,
      "这事": 7166,
      "不远处": 7167,
      "中年人": 7168,
      "地震": 7169,
      "巨蜥": 7170,
      "拒绝": 7171,
      "发出一": 7172,
      "奴隶": 7173,
      "好东西": 7174,
      "要么": 7175,
      "遗憾": 7176,
      "无尽蓝海": 7177,
      "不动": 7178,
      "你这": 7179,
      "吓得": 7180,
      "我了": 7181,
      "那只": 7182,
      "了一只": 7183,
      "手上": 7184,
      "手臂": 7185,
      "现实": 7186,
      "万诺": 7187,
      "伊万诺": 7188,
      "光明": 7189,
      "勉强": 7190,
      "另一": 7191,
      "敌人": 7192,
      "根据": 7193,
      "越是": 7194,
      "还不知道": 7195,
      "面前的": 7196,
      "伊万诺夫": 7197,
      "打开了": 7198,
      "白人": 7199,
      "眼泪": 7200,
      "笑眯眯": 7201,
      "让我们": 7202,
      "狼群": 7203,
      "站起身": 7204,
      "雷劫": 7205,
      "实在太": 7206,
      "B级": 7207,
      "下面": 7208,
      "事件": 7209,
      "冰冷": 7210,
      "孙楚辞": 7211,
      "小笑": 7212,
      "王国": 7213,
      "监控": 7214,
      "长时间": 7215,
      "阿姨": 7216,
      "下来的": 7217,
      "身边的": 7218,
      "淡淡的": 7219,
      "他没有": 7220,
      "公里": 7221,
      "四个": 7222,
      "多么": 7223,
      "就看到": 7224,
      "怒吼": 7225,
      "手段": 7226,
      "睡着": 7227,
      "谁能": 7228,
      "还可以": 7229,
      "鲸鱼": 7230,
      "双眸": 7231,
      "在空中": 7232,
      "治疗": 7233,
      "深吸": 7234,
      "还需要": 7235,
      "这么一": 7236,
      "展现": 7237,
      "带来": 7238,
      "白色的": 7239,
      "的风": 7240,
      "看直播": 7241,
      "金牌": 7242,
      "众位": 7243,
      "医生": 7244,
      "回应": 7245,
      "三十": 7246,
      "中间": 7247,
      "困难": 7248,
      "干嘛": 7249,
      "扭头": 7250,
      "的啊": 7251,
      "自由": 7252,
      "隐约": 7253,
      "瓦西里": 7254,
      "一处": 7255,
      "对面": 7256,
      "将会": 7257,
      "尽快": 7258,
      "拍摄": 7259,
      "来得": 7260,
      "湾鳄": 7261,
      "的水": 7262,
      "诞生": 7263,
      "他才": 7264,
      "半夜": 7265,
      "幻羽": 7266,
      "床上": 7267,
      "我有": 7268,
      "电梯": 7269,
      "的女": 7270,
      "从未": 7271,
      "巨大": 7272,
      "级别": 7273,
      "想了想说道": 7274,
      "据说": 7275,
      "中央": 7276,
      "代价": 7277,
      "伊娃": 7278,
      "把我": 7279,
      "飞机": 7280,
      "把自己": 7281,
      "林小笑": 7282,
      "要去": 7283,
      "这头": 7284,
      "通知": 7285,
      "降临": 7286,
      "人了": 7287,
      "生生": 7288,
      "的老": 7289,
      "稍微": 7290,
      "还有一些": 7291,
      "情况下": 7292,
      "上午": 7293,
      "他知道": 7294,
      "外界": 7295,
      "有很多": 7296,
      "现在已经": 7297,
      "交易": 7298,
      "咚咚": 7299,
      "海水": 7300,
      "的高": 7301,
      "系统": 7302,
      "一个月": 7303,
      "了一条": 7304,
      "注意到": 7305,
      "很可能": 7306,
      "感知": 7307,
      "的那个": 7308,
      "级别的": 7309,
      "诅咒": 7310,
      "身为": 7311,
      "丛林": 7312,
      "也全都": 7313,
      "伤势": 7314,
      "无人机": 7315,
      "妖族的": 7316,
      "平头": 7317,
      "弟弟": 7318,
      "的模样": 7319,
      "脸上的": 7320,
      "七阶": 7321,
      "习惯": 7322,
      "却没有": 7323,
      "手中的": 7324,
      "的身上": 7325,
      "究竟": 7326,
      "边缘": 7327,
      "等待着": 7328,
      "暗魔大妖皇": 7329,
      "不住了": 7330,
      "他能": 7331,
      "团子": 7332,
      "心思": 7333,
      "毁灭": 7334,
      "爆炸": 7335,
      "皮肤": 7336,
      "迸发": 7337,
      "所以说": 7338,
      "继续说道": 7339,
      "无论是": 7340,
      "却被": 7341,
      "在我": 7342,
      "浑身": 7343,
      "满意": 7344,
      "闪豹": 7345,
      "回忆": 7346,
      "特么": 7347,
      "重的": 7348,
      "关心": 7349,
      "半天": 7350,
      "对你": 7351,
      "对不起": 7352,
      "开来": 7353,
      "检查": 7354,
      "那天": 7355,
      "听到了": 7356,
      "死去": 7357,
      "浮现": 7358,
      "确认": 7359,
      "生死关": 7360,
      "他和": 7361,
      "光晕": 7362,
      "来不及": 7363,
      "树枝": 7364,
      "给大家": 7365,
      "机器人": 7366,
      "整容国": 7367,
      "争取": 7368,
      "你现在": 7369,
      "感应": 7370,
      "感慨": 7371,
      "有观众": 7372,
      "睁开": 7373,
      "西大陆": 7374,
      "该怎么": 7375,
      "跟你": 7376,
      "之气": 7377,
      "人群": 7378,
      "开门": 7379,
      "总算是": 7380,
      "某个": 7381,
      "眼眸": 7382,
      "陶罐": 7383,
      "杰克": 7384,
      "不会有": 7385,
      "平头哥": 7386,
      "布置": 7387,
      "檀树妖": 7388,
      "的意思": 7389,
      "礼物": 7390,
      "罗斯": 7391,
      "邹明": 7392,
      "还有一个": 7393,
      "心头": 7394,
      "都有些": 7395,
      "感受到了": 7396,
      "荒野求": 7397,
      "剑圣大妖皇": 7398,
      "历史": 7399,
      "甚至还": 7400,
      "一样的": 7401,
      "不对劲": 7402,
      "罗斯福": 7403,
      "丝毫": 7404,
      "新闻": 7405,
      "这两个": 7406,
      "不停": 7407,
      "不至于": 7408,
      "本体": 7409,
      "照顾": 7410,
      "猞猁": 7411,
      "脑子": 7412,
      "室里": 7413,
      "翼翼": 7414,
      "一般的": 7415,
      "进入了": 7416,
      "小心翼翼": 7417,
      "集团军": 7418,
      "之内": 7419,
      "再来": 7420,
      "呜呜": 7421,
      "唯有": 7422,
      "有时候": 7423,
      "队的": 7424,
      "鲜血": 7425,
      "蓝银皇": 7426,
      "回来的": 7427,
      "有钱": 7428,
      "望着": 7429,
      "柳树妖": 7430,
      "野兽": 7431,
      "这个问题": 7432,
      "凭借着": 7433,
      "强行": 7434,
      "徒弟": 7435,
      "擅长": 7436,
      "是最": 7437,
      "血脉烙印": 7438,
      "地说": 7439,
      "是啊": 7440,
      "聊天": 7441,
      "了一口": 7442,
      "也不可能": 7443,
      "搬家": 7444,
      "有不少": 7445,
      "片刻": 7446,
      "猛然": 7447,
      "的身份": 7448,
      "背着": 7449,
      "艰难": 7450,
      "补充": 7451,
      "的时间行者": 7452,
      "18号城市": 7453,
      "人生": 7454,
      "昨晚": 7455,
      "爷爷": 7456,
      "的吗": 7457,
      "而现在": 7458,
      "调整": 7459,
      "他对": 7460,
      "可就": 7461,
      "喊着": 7462,
      "声说道": 7463,
      "很少": 7464,
      "拉着": 7465,
      "中心": 7466,
      "为止": 7467,
      "他说": 7468,
      "制造": 7469,
      "嘴角": 7470,
      "的了": 7471,
      "神界": 7472,
      "穿过": 7473,
      "老家": 7474,
      "金属": 7475,
      "比赛的": 7476,
      "救援人员": 7477,
      "不大": 7478,
      "以来": 7479,
      "分明": 7480,
      "的路": 7481,
      "直播画面当中": 7482,
      "发出一声": 7483,
      "危机": 7484,
      "式神": 7485,
      "往回": 7486,
      "是被": 7487,
      "猛犸": 7488,
      "百万": 7489,
      "贵族": 7490,
      "都知道": 7491,
      "附庸": 7492,
      "在外面": 7493,
      "得很": 7494,
      "镇长": 7495,
      "大斗兽场": 7496,
      "娱乐": 7497,
      "手指": 7498,
      "把你": 7499,
      "返回": 7500,
      "门外": 7501,
      "一脉": 7502,
      "中了": 7503,
      "俩人": 7504,
      "变的": 7505,
      "宫寺": 7506,
      "最快": 7507,
      "等我": 7508,
      "一边说着": 7509,
      "当然了": 7510,
      "宫寺真纪": 7511,
      "下次": 7512,
      "在哪里": 7513,
      "打死": 7514,
      "拿出": 7515,
      "恐怖的": 7516,
      "烈阳花": 7517,
      "三区": 7518,
      "白天": 7519,
      "醒来": 7520,
      "都不敢": 7521,
      "不懂": 7522,
      "中羽": 7523,
      "勒格": 7524,
      "必勒格": 7525,
      "没关系": 7526,
      "的男人": 7527,
      "雪山": 7528,
      "002": 7529,
      "商量": 7530,
      "增加": 7531,
      "处于": 7532,
      "灵气": 7533,
      "的生命": 7534,
      "直奔": 7535,
      "结束了": 7536,
      "一口气": 7537,
      "低头": 7538,
      "发了": 7539,
      "可不": 7540,
      "夫人": 7541,
      "才对": 7542,
      "操控": 7543,
      "温柔": 7544,
      "莫名": 7545,
      "蓝色": 7546,
      "馨儿": 7547,
      "觉得自己": 7548,
      "一遍": 7549,
      "果子": 7550,
      "的方式": 7551,
      "离去": 7552,
      "而在": 7553,
      "连续": 7554,
      "避免": 7555,
      "已经在": 7556,
      "一共": 7557,
      "做好": 7558,
      "光是": 7559,
      "十年": 7560,
      "天柱": 7561,
      "时代": 7562,
      "的变化": 7563,
      "神宫寺真纪": 7564,
      "绽放": 7565,
      "角落": 7566,
      "冕下": 7567,
      "北方": 7568,
      "梦阡": 7569,
      "犹如": 7570,
      "身材": 7571,
      "告诉我": 7572,
      "无声息": 7573,
      "也想": 7574,
      "回过": 7575,
      "滩涂": 7576,
      "也就是说": 7577,
      "不愿意": 7578,
      "乃是": 7579,
      "凭什么": 7580,
      "悄无声息": 7581,
      "混沌": 7582,
      "生存": 7583,
      "皇天柱": 7584,
      "花园": 7585,
      "了一大": 7586,
      "还有一": 7587,
      "两人的": 7588,
      "上岛": 7589,
      "了几分": 7590,
      "剩余": 7591,
      "屋里": 7592,
      "我这": 7593,
      "概率": 7594,
      "王妃": 7595,
      "略微": 7596,
      "阿三": 7597,
      "难怪": 7598,
      "狙击手": 7599,
      "位面的": 7600,
      "你自己": 7601,
      "你不是": 7602,
      "更好": 7603,
      "更好的": 7604,
      "然后就": 7605,
      "地位": 7606,
      "对我": 7607,
      "庄园": 7608,
      "走在": 7609,
      "轻松": 7610,
      "第二天": 7611,
      "金刚天精皇": 7612,
      "一动": 7613,
      "了许多": 7614,
      "小说": 7615,
      "急忙": 7616,
      "换了": 7617,
      "药剂": 7618,
      "他的身体": 7619,
      "蓝金树族的": 7620,
      "怕是": 7621,
      "特意": 7622,
      "玩笑": 7623,
      "管理": 7624,
      "庆尘问道": 7625,
      "偷偷": 7626,
      "在那里": 7627,
      "客气": 7628,
      "建议": 7629,
      "我没": 7630,
      "的很": 7631,
      "等他": 7632,
      "都开始": 7633,
      "甚至是": 7634,
      "消失了": 7635,
      "伙伴": 7636,
      "只有一": 7637,
      "每一": 7638,
      "浪费": 7639,
      "精族": 7640,
      "可以说是": 7641,
      "了很多": 7642,
      "功夫": 7643,
      "和我": 7644,
      "的门": 7645,
      "的眼神": 7646,
      "给你们": 7647,
      "诺亚": 7648,
      "造成": 7649,
      "否则的话": 7650,
      "各个": 7651,
      "尾巴": 7652,
      "性格": 7653,
      "放松": 7654,
      "时空": 7655,
      "是非常": 7656,
      "棵树": 7657,
      "洛城": 7658,
      "这么做": 7659,
      "占皇之战": 7660,
      "不小心": 7661,
      "及时": 7662,
      "啥的": 7663,
      "夺冠": 7664,
      "收集": 7665,
      "的好": 7666,
      "眼里": 7667,
      "着自己": 7668,
      "身躯": 7669,
      "了点": 7670,
      "仅仅": 7671,
      "信任": 7672,
      "吃点": 7673,
      "太阳": 7674,
      "性的": 7675,
      "眼看着": 7676,
      "行了": 7677,
      "震撼": 7678,
      "然后又": 7679,
      "当中的": 7680,
      "你可以": 7681,
      "失踪": 7682,
      "的背": 7683,
      "这可是": 7684,
      "的一声": 7685,
      "或者是": 7686,
      "了好": 7687,
      "凶龙": 7688,
      "天真": 7689,
      "失去了": 7690,
      "弄死": 7691,
      "拿到": 7692,
      "沙发": 7693,
      "灵力": 7694,
      "胜利": 7695,
      "赚钱": 7696,
      "难度": 7697,
      "也不敢": 7698,
      "所在的": 7699,
      "下意识的": 7700,
      "一年": 7701,
      "内容": 7702,
      "死在": 7703,
      "没法": 7704,
      "玩家": 7705,
      "罢了": 7706,
      "非要": 7707,
      "候选": 7708,
      "小三": 7709,
      "康馨儿": 7710,
      "得到了": 7711,
      "真情": 7712,
      "不知道为什么": 7713,
      "天狐之眼": 7714,
      "金牌小队": 7715,
      "来得及": 7716,
      "双眼": 7717,
      "巨兽": 7718,
      "斯特": 7719,
      "的脑袋": 7720,
      "记住": 7721,
      "车上": 7722,
      "都不会": 7723,
      "一个小": 7724,
      "怎么说": 7725,
      "躲在": 7726,
      "这一组选手": 7727,
      "不错的": 7728,
      "贵宾室": 7729,
      "先是": 7730,
      "十一": 7731,
      "帐篷": 7732,
      "异常": 7733,
      "本源": 7734,
      "水里": 7735,
      "玻璃": 7736,
      "神经": 7737,
      "金光": 7738,
      "20": 7739,
      "剧组": 7740,
      "神王": 7741,
      "离婚": 7742,
      "踪迹": 7743,
      "追杀": 7744,
      "合适的": 7745,
      "张承业": 7746,
      "伸手": 7747,
      "土豆": 7748,
      "态度": 7749,
      "虚弱": 7750,
      "有一天": 7751,
      "增强": 7752,
      "拍了": 7753,
      "看不到": 7754,
      "耽误": 7755,
      "这会": 7756,
      "的一幕": 7757,
      "有多么": 7758,
      "ACE": 7759,
      "不久": 7760,
      "不止": 7761,
      "你别": 7762,
      "土窑": 7763,
      "妖兽": 7764,
      "未必": 7765,
      "事业": 7766,
      "可他": 7767,
      "强悍": 7768,
      "才有": 7769,
      "某种": 7770,
      "警惕": 7771,
      "野牛": 7772,
      "唐三在": 7773,
      "冷风的": 7774,
      "九州": 7775,
      "后的": 7776,
      "奶茶": 7777,
      "得了": 7778,
      "手掌": 7779,
      "男子": 7780,
      "元素币": 7781,
      "在一旁": 7782,
      "介绍": 7783,
      "地狱": 7784,
      "快要": 7785,
      "提供": 7786,
      "流露": 7787,
      "穿山": 7788,
      "给他们": 7789,
      "老实": 7790,
      "证据": 7791,
      "过一": 7792,
      "祖庭的": 7793,
      "发生了什么": 7794,
      "权杖": 7795,
      "歹徒": 7796,
      "给叶寒": 7797,
      "轻易": 7798,
      "直播间的": 7799,
      "穿山甲": 7800,
      "五个": 7801,
      "从小": 7802,
      "以以": 7803,
      "往前": 7804,
      "还不是": 7805,
      "这东西": 7806,
      "那也是": 7807,
      "都无法": 7808,
      "陷入": 7809,
      "神代空": 7810,
      "获得了": 7811,
      "在这种": 7812,
      "强烈的": 7813,
      "德爷": 7814,
      "担忧": 7815,
      "行为": 7816,
      "面具": 7817,
      "候选者": 7818,
      "地的": 7819,
      "小刘": 7820,
      "日辰": 7821,
      "来找": 7822,
      "注视": 7823,
      "破了": 7824,
      "就是个": 7825,
      "这么久": 7826,
      "这么大的": 7827,
      "顿时就": 7828,
      "告诉你": 7829,
      "专业": 7830,
      "也无法": 7831,
      "单纯": 7832,
      "甚至连": 7833,
      "网友们": 7834,
      "放下": 7835,
      "是为了": 7836,
      "调查": 7837,
      "依旧是": 7838,
      "杰克逊": 7839,
      "也算是": 7840,
      "再度": 7841,
      "十几": 7842,
      "我家": 7843,
      "放过": 7844,
      "漂老师": 7845,
      "的世界": 7846,
      "看到的": 7847,
      "也开始": 7848,
      "后续": 7849,
      "嘿嘿": 7850,
      "我真的": 7851,
      "祖奶奶": 7852,
      "融入": 7853,
      "这让": 7854,
      "狮虎剑圣": 7855,
      "后悔": 7856,
      "搭建": 7857,
      "比蒙": 7858,
      "相遇": 7859,
      "算卦": 7860,
      "阳光": 7861,
      "之类的东西": 7862,
      "不着": 7863,
      "也许": 7864,
      "他一": 7865,
      "打电话": 7866,
      "银色": 7867,
      "了呢": 7868,
      "会在": 7869,
      "你还": 7870,
      "八阶": 7871,
      "大树": 7872,
      "尽管": 7873,
      "惊呼": 7874,
      "的女人": 7875,
      "羡慕": 7876,
      "设备": 7877,
      "过来的": 7878,
      "大量的观众": 7879,
      "你知道": 7880,
      "囚犯": 7881,
      "天眼": 7882,
      "妹妹": 7883,
      "安静": 7884,
      "对她": 7885,
      "相互": 7886,
      "后面的": 7887,
      "大约": 7888,
      "天色": 7889,
      "广场": 7890,
      "晶晶": 7891,
      "流淌": 7892,
      "神奇": 7893,
      "表面": 7894,
      "网络上": 7895,
      "东泽": 7896,
      "东大陆": 7897,
      "之主": 7898,
      "她就": 7899,
      "建筑": 7900,
      "李东泽": 7901,
      "积分": 7902,
      "美女": 7903,
      "血脉的": 7904,
      "在了地上": 7905,
      "大师兄": 7906,
      "岛屿碎片": 7907,
      "下水": 7908,
      "前的": 7909,
      "受到了": 7910,
      "旋转": 7911,
      "裤子": 7912,
      "鼠潮": 7913,
      "自身的": 7914,
      "叫声": 7915,
      "同意": 7916,
      "命令": 7917,
      "张梦阡": 7918,
      "把握": 7919,
      "排名": 7920,
      "枪械": 7921,
      "百米": 7922,
      "走进": 7923,
      "闻言": 7924,
      "微微一笑": 7925,
      "吃完": 7926,
      "建立": 7927,
      "的食物": 7928,
      "站起身来": 7929,
      "以至于": 7930,
      "借助": 7931,
      "只好": 7932,
      "怀里": 7933,
      "了一会": 7934,
      "苏小柒的": 7935,
      "直接就": 7936,
      "嘉里学院": 7937,
      "地面上": 7938,
      "实在是太": 7939,
      "一群": 7940,
      "冷冷": 7941,
      "可爱": 7942,
      "收敛": 7943,
      "最高": 7944,
      "脚下": 7945,
      "说出": 7946,
      "跑去": 7947,
      "魂魄": 7948,
      "选择了": 7949,
      "一副": 7950,
      "一脚": 7951,
      "之塔": 7952,
      "六阶": 7953,
      "向外": 7954,
      "在这一": 7955,
      "晋升": 7956,
      "装备": 7957,
      "见面": 7958,
      "道里": 7959,
      "镜子": 7960,
      "骨头": 7961,
      "讨论着": 7962,
      "兰心": 7963,
      "听了": 7964,
      "周衍": 7965,
      "在它": 7966,
      "基础": 7967,
      "对对": 7968,
      "如果说": 7969,
      "基因战士": 7970,
      "便是": 7971,
      "再去": 7972,
      "和唐红": 7973,
      "威能": 7974,
      "我族": 7975,
      "血腥": 7976,
      "谨慎": 7977,
      "就是为了": 7978,
      "灵犀天眼": 7979,
      "不论": 7980,
      "之位": 7981,
      "号监狱": 7982,
      "对自己": 7983,
      "山谷": 7984,
      "我刚才": 7985,
      "的那种": 7986,
      "漂亮国的": 7987,
      "大量的弹幕": 7988,
      "冷静": 7989,
      "向上": 7990,
      "命的": 7991,
      "夜晚": 7992,
      "快了": 7993,
      "技术": 7994,
      "拿起": 7995,
      "松了口气": 7996,
      "病房": 7997,
      "的肉": 7998,
      "的身影": 7999,
      "这些东西": 8000,
      "是一种": 8001,
      "比蒙巨兽": 8002,
      "也好": 8003,
      "和她": 8004,
      "我怎么": 8005,
      "湖泊": 8006,
      "生长": 8007,
      "的攻击": 8008,
      "看过": 8009,
      "答案": 8010,
      "虫子": 8011,
      "桑非晚说": 8012,
      "完全可以": 8013,
      "也就在": 8014,
      "和俞北冥": 8015,
      "就那么": 8016,
      "帮他": 8017,
      "恶心": 8018,
      "愣住了": 8019,
      "整体": 8020,
      "火神": 8021,
      "破坏": 8022,
      "赶路": 8023,
      "了一遍": 8024,
      "兽人": 8025,
      "最重要": 8026,
      "来着": 8027,
      "生意": 8028,
      "角色": 8029,
      "那你": 8030,
      "醒了": 8031,
      "自己的身体": 8032,
      "感受着": 8033,
      "散发着": 8034,
      "之处": 8035,
      "会议": 8036,
      "决赛": 8037,
      "努金": 8038,
      "宙斯": 8039,
      "密钥": 8040,
      "支撑": 8041,
      "火锅": 8042,
      "角度": 8043,
      "阿努金": 8044,
      "怎么回事": 8045,
      "杨青青和唐红": 8046,
      "天机翎": 8047,
      "短时间内": 8048,
      "密钥之门": 8049,
      "动用": 8050,
      "向前": 8051,
      "地看着": 8052,
      "惊喜": 8053,
      "正式": 8054,
      "的能量": 8055,
      "陨落": 8056,
      "直播间里面": 8057,
      "家人们": 8058,
      "也太": 8059,
      "传说": 8060,
      "却又": 8061,
      "史莱": 8062,
      "女性": 8063,
      "成神": 8064,
      "找个": 8065,
      "树林": 8066,
      "的一个": 8067,
      "绝壁": 8068,
      "脱离": 8069,
      "选手们": 8070,
      "这样的话": 8071,
      "基因药剂": 8072,
      "人在": 8073,
      "作战": 8074,
      "建造": 8075,
      "想去": 8076,
      "破碎": 8077,
      "该怎么办": 8078,
      "走向": 8079,
      "问问": 8080,
      "出现的": 8081,
      "是不可能": 8082,
      "看不见": 8083,
      "灵犀鹿": 8084,
      "也知道": 8085,
      "注入": 8086,
      "状况": 8087,
      "信仰": 8088,
      "啊啊": 8089,
      "嘀咕": 8090,
      "待到": 8091,
      "更高": 8092,
      "窗户": 8093,
      "那我": 8094,
      "有人在": 8095,
      "皇者的": 8096,
      "说话间": 8097,
      "er": 8098,
      "从天": 8099,
      "以上": 8100,
      "加速": 8101,
      "早点": 8102,
      "牛肉": 8103,
      "疼痛": 8104,
      "的空间": 8105,
      "秦以以": 8106,
      "精彩": 8107,
      "者的": 8108,
      "聚集": 8109,
      "还有什么": 8110,
      "这边的": 8111,
      "下三区": 8112,
      "别忘了": 8113,
      "她是": 8114,
      "昏迷": 8115,
      "道歉": 8116,
      "荒野求生": 8117,
      "了我": 8118,
      "吃完了": 8119,
      "太大": 8120,
      "服务": 8121,
      "深的": 8122,
      "苏琴": 8123,
      "里有": 8124,
      "眼前的": 8125,
      "也还是": 8126,
      "崩溃": 8127,
      "工具": 8128,
      "扭曲": 8129,
      "无形": 8130,
      "规矩": 8131,
      "转移": 8132,
      "阴阳二": 8133,
      "今日": 8134,
      "假的": 8135,
      "利益": 8136,
      "发挥": 8137,
      "喝酒": 8138,
      "天宇": 8139,
      "夸张": 8140,
      "安慰": 8141,
      "小镇": 8142,
      "开枪": 8143,
      "然的": 8144,
      "说法": 8145,
      "透过": 8146,
      "那都是": 8147,
      "这么说": 8148,
      "他都": 8149,
      "光影": 8150,
      "到了一": 8151,
      "卧槽": 8152,
      "厕所": 8153,
      "变了": 8154,
      "在唐三": 8155,
      "搜索": 8156,
      "电视": 8157,
      "的生活": 8158,
      "的名字": 8159,
      "被打": 8160,
      "全都在": 8161,
      "两千": 8162,
      "口锅": 8163,
      "吃肉": 8164,
      "在家": 8165,
      "天气": 8166,
      "女朋友": 8167,
      "庆怀": 8168,
      "建木": 8169,
      "我给你": 8170,
      "期间": 8171,
      "精英": 8172,
      "群里": 8173,
      "都不是": 8174,
      "如果你": 8175,
      "接下来的": 8176,
      "恢复了": 8177,
      "悄无声息的": 8178,
      "世间": 8179,
      "众多": 8180,
      "区别": 8181,
      "城的": 8182,
      "大哥": 8183,
      "宿舍": 8184,
      "少了": 8185,
      "我就是": 8186,
      "手枪": 8187,
      "朴真情": 8188,
      "管家": 8189,
      "终究": 8190,
      "高度": 8191,
      "其实是": 8192,
      "观众们的": 8193,
      "孔雀妖族的": 8194,
      "三人": 8195,
      "两次": 8196,
      "事的": 8197,
      "你先": 8198,
      "卫戍": 8199,
      "在你": 8200,
      "复制": 8201,
      "形成": 8202,
      "微笑道": 8203,
      "摇了": 8204,
      "有机会": 8205,
      "留下的": 8206,
      "苍鹰": 8207,
      "说明": 8208,
      "跟他": 8209,
      "这都是": 8210,
      "阴影": 8211,
      "庆尘忽然": 8212,
      "简单的": 8213,
      "二十多": 8214,
      "做到的": 8215,
      "好看": 8216,
      "对此": 8217,
      "手下": 8218,
      "抵挡": 8219,
      "泥土": 8220,
      "浮生": 8221,
      "舍不得": 8222,
      "走廊": 8223,
      "不能再": 8224,
      "普通的": 8225,
      "司机": 8226,
      "啤酒": 8227,
      "外出": 8228,
      "失去": 8229,
      "快点": 8230,
      "拿出来": 8231,
      "欺负": 8232,
      "笑话": 8233,
      "蓝星": 8234,
      "讲述": 8235,
      "002号禁忌之地": 8236,
      "ok": 8237,
      "也同样": 8238,
      "军团": 8239,
      "只会": 8240,
      "合作": 8241,
      "大楼": 8242,
      "将要": 8243,
      "展开": 8244,
      "很不": 8245,
      "想过": 8246,
      "我也是": 8247,
      "挥手": 8248,
      "蝙蝠": 8249,
      "计时": 8250,
      "超导": 8251,
      "金罡": 8252,
      "闭关": 8253,
      "怎么了": 8254,
      "如果没有": 8255,
      "应该就是": 8256,
      "有些不": 8257,
      "几十": 8258,
      "张开": 8259,
      "形容": 8260,
      "我只是": 8261,
      "收容": 8262,
      "每个人": 8263,
      "硬生生": 8264,
      "神将": 8265,
      "隔着": 8266,
      "黑水": 8267,
      "不多": 8268,
      "从他": 8269,
      "向唐三": 8270,
      "哎呀": 8271,
      "在海": 8272,
      "庆准": 8273,
      "成年": 8274,
      "短暂": 8275,
      "贵的": 8276,
      "根本没有": 8277,
      "狮虎金罡": 8278,
      "居民": 8279,
      "得知": 8280,
      "怪物": 8281,
      "想到了": 8282,
      "的作用": 8283,
      "胸口": 8284,
      "裁判": 8285,
      "的人生": 8286,
      "也没想到": 8287,
      "张浩然的": 8288,
      "蚯蚓队": 8289,
      "30": 8290,
      "一段": 8291,
      "便宜": 8292,
      "可见": 8293,
      "听见": 8294,
      "宁臣": 8295,
      "张蕴": 8296,
      "竹子": 8297,
      "而不是": 8298,
      "这几天": 8299,
      "之后的": 8300,
      "根本就": 8301,
      "只能是": 8302,
      "退赛了": 8303,
      "18号监狱": 8304,
      "宁臣恩": 8305,
      "在祖庭": 8306,
      "场面": 8307,
      "平安": 8308,
      "松了一口气": 8309,
      "死死": 8310,
      "没问题": 8311,
      "满脸": 8312,
      "这还是": 8313,
      "风雨": 8314,
      "两种": 8315,
      "他一眼": 8316,
      "做出了": 8317,
      "坐下": 8318,
      "奥古": 8319,
      "知识": 8320,
      "神圣": 8321,
      "美的": 8322,
      "长官": 8323,
      "可以说": 8324,
      "十分钟": 8325,
      "oker": 8326,
      "CP": 8327,
      "Joker": 8328,
      "下去了": 8329,
      "了下去": 8330,
      "会的": 8331,
      "出生": 8332,
      "发送": 8333,
      "口中": 8334,
      "四阶": 8335,
      "奖励": 8336,
      "尽头": 8337,
      "火黎": 8338,
      "留着": 8339,
      "的对": 8340,
      "萧河": 8341,
      "所以他": 8342,
      "奥古斯特": 8343,
      "一枚": 8344,
      "停下": 8345,
      "偶尔": 8346,
      "叶晚": 8347,
      "在意": 8348,
      "车里": 8349,
      "队长": 8350,
      "为什么会": 8351,
      "存在的": 8352,
      "旁边的": 8353,
      "不开": 8354,
      "两大": 8355,
      "他把": 8356,
      "手腕": 8357,
      "有意思": 8358,
      "给我们": 8359,
      "这个事情": 8360,
      "一半": 8361,
      "不怕": 8362,
      "倒计时": 8363,
      "张天真": 8364,
      "的海": 8365,
      "的程度": 8366,
      "车辆": 8367,
      "雨水": 8368,
      "现在是": 8369,
      "一定是": 8370,
      "两条": 8371,
      "但她": 8372,
      "做不到": 8373,
      "对面的": 8374,
      "师兄": 8375,
      "当成": 8376,
      "指着": 8377,
      "隐隐": 8378,
      "就是在": 8379,
      "波顿侯爵": 8380,
      "不成": 8381,
      "击杀": 8382,
      "双臂": 8383,
      "喊道": 8384,
      "大人": 8385,
      "必定": 8386,
      "橡胶": 8387,
      "生日": 8388,
      "男孩": 8389,
      "看清": 8390,
      "线索": 8391,
      "闪电": 8392,
      "鸭子": 8393,
      "其他的选手": 8394,
      "身后的": 8395,
      "之光": 8396,
      "又不是": 8397,
      "岂不是": 8398,
      "快的": 8399,
      "报警": 8400,
      "搬运": 8401,
      "攀登": 8402,
      "正面": 8403,
      "白的": 8404,
      "要不是": 8405,
      "这个位面": 8406,
      "荒野上": 8407,
      "不已": 8408,
      "全军": 8409,
      "去看看": 8410,
      "墙壁": 8411,
      "多年": 8412,
      "好啊": 8413,
      "心说": 8414,
      "数十": 8415,
      "级的": 8416,
      "试图": 8417,
      "也不用": 8418,
      "上班": 8419,
      "到处": 8420,
      "动的": 8421,
      "卫星": 8422,
      "吃到": 8423,
      "工资": 8424,
      "平衡": 8425,
      "摧毁": 8426,
      "漆黑": 8427,
      "用力": 8428,
      "走到了": 8429,
      "平静说道": 8430,
      "日辰帝国": 8431,
      "超导世界": 8432,
      "一会儿": 8433,
      "住在": 8434,
      "嫌弃": 8435,
      "小小": 8436,
      "幸福": 8437,
      "登山": 8438,
      "缝隙": 8439,
      "西蒙": 8440,
      "边的": 8441,
      "就是因为": 8442,
      "压根": 8443,
      "吃不": 8444,
      "失望": 8445,
      "就好": 8446,
      "并非": 8447,
      "热带": 8448,
      "盖房子": 8449,
      "说要": 8450,
      "跟随": 8451,
      "车队": 8452,
      "还有些": 8453,
      "轻轻的": 8454,
      "一层": 8455,
      "大学": 8456,
      "小小的": 8457,
      "承认": 8458,
      "无聊": 8459,
      "的同时": 8460,
      "记录": 8461,
      "隔壁": 8462,
      "什么东西": 8463,
      "还是很": 8464,
      "看到这一幕": 8465,
      "曾经的": 8466,
      "禁忌物ACE": 8467,
      "妖怪族和": 8468,
      "拍了拍": 8469,
      "好歹": 8470,
      "守着": 8471,
      "小时候": 8472,
      "我很": 8473,
      "摸着": 8474,
      "清醒": 8475,
      "温度": 8476,
      "的房子": 8477,
      "被叶寒": 8478,
      "不得不说": 8479,
      "丰富": 8480,
      "他会": 8481,
      "做好了": 8482,
      "凭空": 8483,
      "却突然": 8484,
      "总感觉": 8485,
      "法蓝星": 8486,
      "相关": 8487,
      "看出": 8488,
      "自家": 8489,
      "行的": 8490,
      "长大": 8491,
      "一个大": 8492,
      "大家的": 8493,
      "享受": 8494,
      "人啊": 8495,
      "依靠": 8496,
      "半山": 8497,
      "忙碌": 8498,
      "我没有": 8499,
      "战队": 8500,
      "灵魂": 8501,
      "独自": 8502,
      "话音": 8503,
      "这个家伙": 8504,
      "剧烈的": 8505,
      "就去": 8506,
      "带队": 8507,
      "搞定": 8508,
      "有多少": 8509,
      "的直播": 8510,
      "的影响": 8511,
      "远了": 8512,
      "锦鲤": 8513,
      "开始了": 8514,
      "的那样": 8515,
      "呼吸术": 8516,
      "一闪": 8517,
      "剑意": 8518,
      "又要": 8519,
      "外国": 8520,
      "大漂亮": 8521,
      "天上": 8522,
      "带领": 8523,
      "并不知道": 8524,
      "怎样的": 8525,
      "想起来": 8526,
      "抬手": 8527,
      "的太": 8528,
      "的将": 8529,
      "给打": 8530,
      "老叟": 8531,
      "自己在": 8532,
      "这一组": 8533,
      "看向庆尘": 8534,
      "基本上": 8535,
      "的过程中": 8536,
      "全军覆": 8537,
      "之心": 8538,
      "印象": 8539,
      "周咚咚": 8540,
      "媳妇": 8541,
      "已是": 8542,
      "应对": 8543,
      "我才": 8544,
      "更大": 8545,
      "更强": 8546,
      "每一个": 8547,
      "清理": 8548,
      "猜到": 8549,
      "笑的": 8550,
      "透了": 8551,
      "都变得": 8552,
      "摇了摇头": 8553,
      "一拳": 8554,
      "一来": 8555,
      "向他": 8556,
      "喝了": 8557,
      "嘉宾": 8558,
      "差距": 8559,
      "显示": 8560,
      "百年": 8561,
      "的战斗": 8562,
      "神女": 8563,
      "米丽": 8564,
      "艾米丽": 8565,
      "那可是": 8566,
      "打了个": 8567,
      "无所": 8568,
      "是想": 8569,
      "汇聚": 8570,
      "郑兰心": 8571,
      "都想": 8572,
      "龙枪": 8573,
      "这样的事情": 8574,
      "精神之海": 8575,
      "白银公爵": 8576,
      "了什么": 8577,
      "他甚至": 8578,
      "却听": 8579,
      "就很": 8580,
      "悲伤": 8581,
      "拳头": 8582,
      "正经": 8583,
      "火力": 8584,
      "狂奔": 8585,
      "的表情": 8586,
      "老子": 8587,
      "蓝色的": 8588,
      "话说": 8589,
      "走路": 8590,
      "所以才": 8591,
      "的确是": 8592,
      "的血脉之力": 8593,
      "靳淼森": 8594,
      "可怜的": 8595,
      "低声说道": 8596,
      "三名": 8597,
      "十八": 8598,
      "发布": 8599,
      "地问": 8600,
      "得住": 8601,
      "所说": 8602,
      "执念": 8603,
      "技巧": 8604,
      "未来的": 8605,
      "老头": 8606,
      "试探": 8607,
      "这么多的": 8608,
      "不好意思": 8609,
      "影响到": 8610,
      "还不如": 8611,
      "一亮": 8612,
      "事儿": 8613,
      "大厦": 8614,
      "极限": 8615,
      "理由": 8616,
      "绝大多数": 8617,
      "翅膀": 8618,
      "要不要": 8619,
      "诧异": 8620,
      "远离": 8621,
      "餐厅": 8622,
      "叶寒也": 8623,
      "李云寿": 8624,
      "丛林当中": 8625,
      "史莱克": 8626,
      "停顿": 8627,
      "占据": 8628,
      "总觉得": 8629,
      "方面的": 8630,
      "涌动": 8631,
      "银杏": 8632,
      "这种人": 8633,
      "过来了": 8634,
      "当然是": 8635,
      "下手": 8636,
      "单独": 8637,
      "她也": 8638,
      "安德": 8639,
      "密谍": 8640,
      "就得": 8641,
      "撤离": 8642,
      "明亮": 8643,
      "沸腾": 8644,
      "的后": 8645,
      "短短": 8646,
      "给它": 8647,
      "赢了": 8648,
      "陷入了": 8649,
      "鬣狗": 8650,
      "现在他": 8651,
      "这一波": 8652,
      "因为他们": 8653,
      "然后再": 8654,
      "长老们": 8655,
      "疯狂的": 8656,
      "办公室": 8657,
      "一圈": 8658,
      "乔恩": 8659,
      "吃了一": 8660,
      "咖啡": 8661,
      "唯独": 8662,
      "头来": 8663,
      "都觉得": 8664,
      "雪糕": 8665,
      "自己是": 8666,
      "皇者们": 8667,
      "不清": 8668,
      "之争": 8669,
      "健康": 8670,
      "四周": 8671,
      "探员": 8672,
      "洞口": 8673,
      "精准": 8674,
      "而另一边": 8675,
      "运动": 8676,
      "就不用": 8677,
      "家长会成员": 8678,
      "打量着": 8679,
      "卫戍部队": 8680,
      "11": 8681,
      "一双": 8682,
      "不让": 8683,
      "冥想": 8684,
      "咆哮": 8685,
      "和维克托": 8686,
      "才刚刚": 8687,
      "被淘汰": 8688,
      "身的": 8689,
      "下来了": 8690,
      "一整": 8691,
      "万万": 8692,
      "各大": 8693,
      "学会": 8694,
      "最强": 8695,
      "权力": 8696,
      "板上": 8697,
      "脚印": 8698,
      "这个世界上": 8699,
      "时光变": 8700,
      "交流": 8701,
      "可她": 8702,
      "就将": 8703,
      "干的": 8704,
      "房门": 8705,
      "每一次": 8706,
      "着一个": 8707,
      "确的": 8708,
      "维持": 8709,
      "赶到": 8710,
      "陈家": 8711,
      "时间的": 8712,
      "的事情了": 8713,
      "影子候选者": 8714,
      "看了他一眼": 8715,
      "他有": 8716,
      "子弟": 8717,
      "导弹": 8718,
      "引导": 8719,
      "推断": 8720,
      "消散": 8721,
      "灼蕖": 8722,
      "狄天": 8723,
      "聊着": 8724,
      "能有": 8725,
      "身子": 8726,
      "野鸡": 8727,
      "陈灼蕖": 8728,
      "这里是": 8729,
      "想到这里": 8730,
      "大概率": 8731,
      "最快的速度": 8732,
      "但你": 8733,
      "倒塌": 8734,
      "冲突": 8735,
      "前哨": 8736,
      "十六": 8737,
      "孙子": 8738,
      "我先": 8739,
      "景象": 8740,
      "满足": 8741,
      "狮子": 8742,
      "这名": 8743,
      "了一样": 8744,
      "这一下": 8745,
      "城市里": 8746,
      "睡着了": 8747,
      "阴阳二气": 8748,
      "浮生巨": 8749,
      "一提": 8750,
      "封锁": 8751,
      "很简单": 8752,
      "您的": 8753,
      "积累": 8754,
      "等你": 8755,
      "类似": 8756,
      "脖颈": 8757,
      "跟在": 8758,
      "身前": 8759,
      "真的很": 8760,
      "就算了": 8761,
      "不同的": 8762,
      "一旁的": 8763,
      "不就是": 8764,
      "信心": 8765,
      "军官": 8766,
      "好吃": 8767,
      "恰好": 8768,
      "手术": 8769,
      "打着": 8770,
      "时的": 8771,
      "现场": 8772,
      "疲惫": 8773,
      "风元素": 8774,
      "他们在": 8775,
      "了一圈": 8776,
      "的人物": 8777,
      "这一次的": 8778,
      "尝试着": 8779,
      "一夜": 8780,
      "上前": 8781,
      "他了": 8782,
      "你会": 8783,
      "头皮": 8784,
      "宣布": 8785,
      "得多": 8786,
      "我妈": 8787,
      "早就已经": 8788,
      "是可以": 8789,
      "红了": 8790,
      "而这个时候": 8791,
      "超级": 8792,
      "随意": 8793,
      "这么快": 8794,
      "肯定不会": 8795,
      "放心吧": 8796,
      "但那": 8797,
      "做的事情": 8798,
      "别人的": 8799,
      "又有": 8800,
      "国内": 8801,
      "抱歉": 8802,
      "教习": 8803,
      "欢呼": 8804,
      "驾驶": 8805,
      "龙山": 8806,
      "危险的": 8807,
      "相当于": 8808,
      "看得出来": 8809,
      "建木城": 8810,
      "一辈子": 8811,
      "不该": 8812,
      "停了下来": 8813,
      "却没想到": 8814,
      "哭了": 8815,
      "地里": 8816,
      "大事": 8817,
      "太多了": 8818,
      "客厅": 8819,
      "小舞": 8820,
      "小鹰": 8821,
      "少数": 8822,
      "尽量": 8823,
      "岁的": 8824,
      "庆桦": 8825,
      "有限": 8826,
      "的问道": 8827,
      "称呼": 8828,
      "面相": 8829,
      "观众们都": 8830,
      "如此的": 8831,
      "天狐变": 8832,
      "白人之光": 8833,
      "乐呵呵": 8834,
      "你有": 8835,
      "冷笑": 8836,
      "名的": 8837,
      "在旁边": 8838,
      "很高": 8839,
      "我自己": 8840,
      "我不是": 8841,
      "汇报": 8842,
      "的对手": 8843,
      "议会": 8844,
      "足有": 8845,
      "躺着": 8846,
      "这俩人": 8847,
      "没有了": 8848,
      "不少的": 8849,
      "精神病": 8850,
      "尼古拉和维克托": 8851,
      "官方直播间当中": 8852,
      "前哨基地": 8853,
      "令人": 8854,
      "伊藤": 8855,
      "优势": 8856,
      "具备": 8857,
      "吃着": 8858,
      "坐着": 8859,
      "完毕": 8860,
      "看样子": 8861,
      "背上": 8862,
      "落地": 8863,
      "轰鸣": 8864,
      "逃离": 8865,
      "叶寒已经": 8866,
      "陈家章": 8867,
      "但还是": 8868,
      "咬牙": 8869,
      "大地": 8870,
      "数据": 8871,
      "碎了": 8872,
      "输了": 8873,
      "进步": 8874,
      "正常的": 8875,
      "荒野人": 8876,
      "两侧": 8877,
      "他只是": 8878,
      "内脏": 8879,
      "在场": 8880,
      "庞大": 8881,
      "神色": 8882,
      "而过": 8883,
      "锁定": 8884,
      "特殊的": 8885,
      "天宇帝国": 8886,
      "精英赛": 8887,
      "一刻": 8888,
      "买了": 8889,
      "公平": 8890,
      "反抗": 8891,
      "嘻嘻": 8892,
      "她在": 8893,
      "把它": 8894,
      "散发出": 8895,
      "是从": 8896,
      "蓝陌": 8897,
      "影子之争": 8898,
      "蓝陌浅": 8899,
      "也终于": 8900,
      "件事情": 8901,
      "关龙": 8902,
      "将自己": 8903,
      "开玩笑": 8904,
      "感到": 8905,
      "拼命": 8906,
      "挑选": 8907,
      "树木": 8908,
      "眼镜": 8909,
      "给庆尘": 8910,
      "耳朵": 8911,
      "苍穹": 8912,
      "裂天": 8913,
      "银光": 8914,
      "一下子": 8915,
      "山洞里": 8916,
      "救赎学院": 8917,
      "99": 8918,
      "不小的": 8919,
      "你要是": 8920,
      "偏偏": 8921,
      "冒险": 8922,
      "可我": 8923,
      "团队": 8924,
      "太久": 8925,
      "小狼": 8926,
      "就知道": 8927,
      "念头": 8928,
      "水牛": 8929,
      "流逝": 8930,
      "竹林": 8931,
      "腰果": 8932,
      "说出来": 8933,
      "阻止": 8934,
      "除此": 8935,
      "集中": 8936,
      "颜色": 8937,
      "桑非晚和俞北冥": 8938,
      "察觉到": 8939,
      "关龙江": 8940,
      "一份": 8941,
      "不但": 8942,
      "人赛": 8943,
      "何老板": 8944,
      "却在": 8945,
      "大仙": 8946,
      "太太": 8947,
      "就想": 8948,
      "引动": 8949,
      "我再": 8950,
      "捆绑": 8951,
      "绝望": 8952,
      "美丽": 8953,
      "而降": 8954,
      "落在了": 8955,
      "没有人": 8956,
      "它们的": 8957,
      "体内的": 8958,
      "即便是": 8959,
      "除此之外": 8960,
      "FF": 8961,
      "不信": 8962,
      "为他": 8963,
      "化解": 8964,
      "千年": 8965,
      "的不": 8966,
      "石翔": 8967,
      "线木偶": 8968,
      "运转": 8969,
      "这辈子": 8970,
      "金鹏": 8971,
      "这一步": 8972,
      "感觉自己": 8973,
      "伊藤石翔": 8974,
      "C级": 8975,
      "世上": 8976,
      "以免": 8977,
      "全息": 8978,
      "只可惜": 8979,
      "咱俩": 8980,
      "庇护": 8981,
      "得好": 8982,
      "恋爱": 8983,
      "把她": 8984,
      "提线木偶": 8985,
      "摄魂": 8986,
      "楼下": 8987,
      "独木": 8988,
      "社会": 8989,
      "芳萱": 8990,
      "血迹": 8991,
      "身穿": 8992,
      "这三": 8993,
      "知道的": 8994,
      "举报": 8995,
      "传递": 8996,
      "助理": 8997,
      "卫生": 8998,
      "宫殿": 8999,
      "很强": 9000,
      "我爸": 9001,
      "我也不": 9002,
      "招亲": 9003,
      "物品": 9004,
      "第五": 9005,
      "耐心": 9006,
      "自动": 9007,
      "露出了": 9008,
      "鼻子": 9009,
      "已经到了": 9010,
      "已经彻底": 9011,
      "一代": 9012,
      "一支": 9013,
      "了好几": 9014,
      "人间": 9015,
      "付出": 9016,
      "小真纪": 9017,
      "就更": 9018,
      "损失": 9019,
      "瞳孔": 9020,
      "世界的": 9021,
      "虽然是": 9022,
      "一点点": 9023,
      "风狼镇": 9024,
      "从天而降": 9025,
      "一番": 9026,
      "上学": 9027,
      "也都在": 9028,
      "书礼": 9029,
      "了她": 9030,
      "就不会": 9031,
      "秦书礼": 9032,
      "第六": 9033,
      "起床": 9034,
      "防线": 9035,
      "虽然说": 9036,
      "但是他": 9037,
      "然而就在此时": 9038,
      "兽人军团": 9039,
      "下车": 9040,
      "五公主": 9041,
      "你好": 9042,
      "冰元素": 9043,
      "剧烈": 9044,
      "区的": 9045,
      "十五": 9046,
      "号贵宾室": 9047,
      "在他们": 9048,
      "庆野": 9049,
      "当着": 9050,
      "携带": 9051,
      "最初": 9052,
      "特性": 9053,
      "袭击": 9054,
      "邻居": 9055,
      "现在就": 9056,
      "平静的": 9057,
      "22": 9058,
      "一级血脉": 9059,
      "之人": 9060,
      "了他的": 9061,
      "夫妻": 9062,
      "夺舍": 9063,
      "学员": 9064,
      "小声": 9065,
      "看他": 9066,
      "看出来": 9067,
      "罕默": 9068,
      "自行": 9069,
      "花钱": 9070,
      "躲避": 9071,
      "这块": 9072,
      "通关": 9073,
      "直接把": 9074,
      "这是什么": 9075,
      "烈阳花精族": 9076,
      "罕默德": 9077,
      "13": 9078,
      "不愧": 9079,
      "了自己的": 9080,
      "后方": 9081,
      "山上": 9082,
      "我儿子": 9083,
      "承诺": 9084,
      "特地": 9085,
      "琢磨": 9086,
      "着什么": 9087,
      "穆罕默德": 9088,
      "窝棚": 9089,
      "站起来": 9090,
      "笑声": 9091,
      "老公": 9092,
      "蟑螂": 9093,
      "前方的": 9094,
      "两道": 9095,
      "化的": 9096,
      "在里世界": 9097,
      "天的时间": 9098,
      "尴尬": 9099,
      "布里": 9100,
      "庆幸": 9101,
      "微博": 9102,
      "摇晃": 9103,
      "整整": 9104,
      "最重要的": 9105,
      "比武": 9106,
      "溪边": 9107,
      "的距离": 9108,
      "能否": 9109,
      "舰队": 9110,
      "袁芳萱": 9111,
      "要把": 9112,
      "造纸": 9113,
      "都不能": 9114,
      "香烛": 9115,
      "还有个": 9116,
      "身体的": 9117,
      "带着几分": 9118,
      "本来就": 9119,
      "临时": 9120,
      "也非常": 9121,
      "国外": 9122,
      "守龙山": 9123,
      "引起": 9124,
      "惊恐": 9125,
      "暴雨": 9126,
      "沉声道": 9127,
      "海巨人": 9128,
      "说说": 9129,
      "超级血脉": 9130,
      "跑到": 9131,
      "的一天": 9132,
      "经历过": 9133,
      "对他来说": 9134,
      "清晰的": 9135,
      "一部分": 9136,
      "伦斯": 9137,
      "劳伦斯": 9138,
      "将她": 9139,
      "小孩子": 9140,
      "想的": 9141,
      "打的": 9142,
      "智能": 9143,
      "混乱": 9144,
      "画作": 9145,
      "百分": 9146,
      "皱眉": 9147,
      "蟒蛇": 9148,
      "预感": 9149,
      "什么事情": 9150,
      "慢慢地": 9151,
      "的那一刻": 9152,
      "个小时": 9153,
      "传出": 9154,
      "但他们": 9155,
      "冰冰": 9156,
      "召唤": 9157,
      "同样的": 9158,
      "向了": 9159,
      "完蛋": 9160,
      "寿命": 9161,
      "得上": 9162,
      "杀掉": 9163,
      "极致": 9164,
      "极大的": 9165,
      "的主": 9166,
      "的脸": 9167,
      "瞪大了": 9168,
      "阶段": 9169,
      "庆尘看向": 9170,
      "如果他": 9171,
      "有人说": 9172,
      "这次的": 9173,
      "注意力": 9174,
      "很多人都": 9175,
      "也只是": 9176,
      "任小": 9177,
      "任由": 9178,
      "完整": 9179,
      "抽奖": 9180,
      "是很": 9181,
      "晓莹": 9182,
      "的消息": 9183,
      "脑门": 9184,
      "警报": 9185,
      "达到了": 9186,
      "还真是": 9187,
      "迟疑": 9188,
      "好奇道": 9189,
      "一道道": 9190,
      "学生们": 9191,
      "背后的": 9192,
      "往回走": 9193,
      "独木舟": 9194,
      "七彩": 9195,
      "但它": 9196,
      "但其实": 9197,
      "体力": 9198,
      "势力": 9199,
      "包围": 9200,
      "却已经": 9201,
      "命格": 9202,
      "国王": 9203,
      "在比赛": 9204,
      "女生": 9205,
      "巴巴": 9206,
      "带给": 9207,
      "席卷": 9208,
      "底下": 9209,
      "抓住了": 9210,
      "楼上": 9211,
      "的多": 9212,
      "的办法": 9213,
      "街道": 9214,
      "购买": 9215,
      "鞋子": 9216,
      "叶寒和": 9217,
      "发现的": 9218,
      "带着苏小柒": 9219,
      "为什么不": 9220,
      "黄金树": 9221,
      "直播间当中的观众们": 9222,
      "情报一处": 9223,
      "安德烈": 9224,
      "100": 9225,
      "三叉": 9226,
      "共济": 9227,
      "加持": 9228,
      "包裹": 9229,
      "叮咚": 9230,
      "对抗": 9231,
      "庆闻": 9232,
      "悄然": 9233,
      "生病": 9234,
      "红的": 9235,
      "见了": 9236,
      "鸡蛋": 9237,
      "应该不会": 9238,
      "但是现在": 9239,
      "鳄鱼肉": 9240,
      "解决了": 9241,
      "足够的": 9242,
      "任小粟": 9243,
      "三叉戟": 9244,
      "保镖": 9245,
      "在家里": 9246,
      "委屈": 9247,
      "客人": 9248,
      "挡雨": 9249,
      "猎杀": 9250,
      "的第一": 9251,
      "那条": 9252,
      "马车": 9253,
      "这么大": 9254,
      "看着他": 9255,
      "这些年": 9256,
      "咱们神州国": 9257,
      "还没等": 9258,
      "所谓的": 9259,
      "忘记了": 9260,
      "体型": 9261,
      "再多": 9262,
      "几位": 9263,
      "地图": 9264,
      "尽可能": 9265,
      "搭理": 9266,
      "摸了": 9267,
      "梦特": 9268,
      "楼梯": 9269,
      "狐狸": 9270,
      "算什么": 9271,
      "肌肉": 9272,
      "说到这里": 9273,
      "连串": 9274,
      "一起去": 9275,
      "立刻就": 9276,
      "比武招亲": 9277,
      "亲眼": 9278,
      "你是不是": 9279,
      "反噬": 9280,
      "屋子里": 9281,
      "排斥": 9282,
      "暗中": 9283,
      "正要": 9284,
      "脾气": 9285,
      "艾香烛": 9286,
      "远方": 9287,
      "这个小": 9288,
      "大黄的": 9289,
      "成功了": 9290,
      "房间里": 9291,
      "半个小时": 9292,
      "保险": 9293,
      "信号": 9294,
      "停止": 9295,
      "向着": 9296,
      "张嘴": 9297,
      "技能": 9298,
      "无情": 9299,
      "温暖": 9300,
      "炼制": 9301,
      "烧了": 9302,
      "狩猎": 9303,
      "狼妖": 9304,
      "的光芒": 9305,
      "组合": 9306,
      "要命": 9307,
      "阿狸": 9308,
      "陪伴": 9309,
      "知道自己": 9310,
      "是一位": 9311,
      "只有一个": 9312,
      "两头": 9313,
      "你来": 9314,
      "凶狠": 9315,
      "在网上": 9316,
      "天艾香烛": 9317,
      "实的": 9318,
      "对啊": 9319,
      "小老虎": 9320,
      "山顶": 9321,
      "心脏": 9322,
      "感悟": 9323,
      "所未": 9324,
      "扎罗": 9325,
      "拉扎罗": 9326,
      "救命": 9327,
      "最大": 9328,
      "牵引": 9329,
      "画师": 9330,
      "身高": 9331,
      "风光": 9332,
      "了一片": 9333,
      "了一跳": 9334,
      "相当的": 9335,
      "唐三和美公子": 9336,
      "睁开眼睛": 9337,
      "拉扎罗夫": 9338,
      "他就是": 9339,
      "何时": 9340,
      "叶子": 9341,
      "同伴": 9342,
      "夏洛": 9343,
      "我还是": 9344,
      "暗影": 9345,
      "的钱": 9346,
      "的动作": 9347,
      "皱起": 9348,
      "这点": 9349,
      "飞速": 9350,
      "这一趟": 9351,
      "夏洛特": 9352,
      "下方": 9353,
      "他将": 9354,
      "内心的": 9355,
      "军事": 9356,
      "夜色": 9357,
      "太多的": 9358,
      "屋子": 9359,
      "我只": 9360,
      "报仇": 9361,
      "有问题": 9362,
      "水的": 9363,
      "海鲜": 9364,
      "照耀": 9365,
      "白象": 9366,
      "的粉丝": 9367,
      "的情绪": 9368,
      "的踪迹": 9369,
      "翻译": 9370,
      "而来的": 9371,
      "藏在": 9372,
      "观看": 9373,
      "谁知道": 9374,
      "转世": 9375,
      "追击": 9376,
      "限制": 9377,
      "问题是": 9378,
      "也没办法": 9379,
      "之路": 9380,
      "些什么": 9381,
      "他忽然": 9382,
      "会是": 9383,
      "利的": 9384,
      "大脑": 9385,
      "实验": 9386,
      "很大的": 9387,
      "折磨": 9388,
      "数百": 9389,
      "有宪": 9390,
      "李有宪": 9391,
      "榴莲": 9392,
      "稳固": 9393,
      "缘故": 9394,
      "虎禅": 9395,
      "赶往": 9396,
      "这不": 9397,
      "通道": 9398,
      "道夫": 9399,
      "郭虎禅": 9400,
      "顺便": 9401,
      "香味": 9402,
      "离开这里": 9403,
      "天狐族": 9404,
      "本来就是": 9405,
      "不见了": 9406,
      "毫不犹豫": 9407,
      "一千": 9408,
      "一家": 9409,
      "不出来": 9410,
      "了似的": 9411,
      "他从": 9412,
      "他还是": 9413,
      "以往": 9414,
      "你和": 9415,
      "先把": 9416,
      "全网": 9417,
      "兽皮": 9418,
      "名叫": 9419,
      "大门": 9420,
      "宝贝": 9421,
      "希伯": 9422,
      "洗礼": 9423,
      "灾难": 9424,
      "督查": 9425,
      "轻微": 9426,
      "那时": 9427,
      "了一点": 9428,
      "叶寒的直播间": 9429,
      "的手段": 9430,
      "观察着": 9431,
      "议论着": 9432,
      "上百": 9433,
      "他也是": 9434,
      "变异": 9435,
      "夜里": 9436,
      "头的": 9437,
      "女子": 9438,
      "小了": 9439,
      "开车": 9440,
      "手持": 9441,
      "提起": 9442,
      "暴风雨": 9443,
      "海族": 9444,
      "组的": 9445,
      "该死的": 9446,
      "长发": 9447,
      "鹤鸵": 9448,
      "已经很": 9449,
      "可以看到": 9450,
      "起来的": 9451,
      "肯定要": 9452,
      "准备好了": 9453,
      "都没能": 9454,
      "神识的": 9455,
      "回答道": 9456,
      "一颗": 9457,
      "下属": 9458,
      "了你": 9459,
      "双人赛": 9460,
      "合理": 9461,
      "和桑非晚": 9462,
      "在这一刻": 9463,
      "处的": 9464,
      "就这样": 9465,
      "平常": 9466,
      "循环": 9467,
      "火光": 9468,
      "结界": 9469,
      "老六": 9470,
      "而他": 9471,
      "阻挡": 9472,
      "阿道夫": 9473,
      "高赛": 9474,
      "就是了": 9475,
      "地狱花园": 9476,
      "几年": 9477,
      "只剩": 9478,
      "可现在": 9479,
      "团战": 9480,
      "垃圾": 9481,
      "安杰": 9482,
      "将其": 9483,
      "强烈": 9484,
      "白辉": 9485,
      "科技": 9486,
      "聚居": 9487,
      "肢体": 9488,
      "起初": 9489,
      "还说": 9490,
      "道道": 9491,
      "都说": 9492,
      "金安": 9493,
      "一直到": 9494,
      "这种情况": 9495,
      "渐渐的": 9496,
      "过程中": 9497,
      "一句话": 9498,
      "半分": 9499,
      "吓了一跳": 9500,
      "气氛": 9501,
      "深刻": 9502,
      "电脑": 9503,
      "留下来": 9504,
      "获取": 9505,
      "蜥蜴": 9506,
      "该死": 9507,
      "锋锐": 9508,
      "已经不": 9509,
      "还有很多": 9510,
      "所以我": 9511,
      "然后开始": 9512,
      "那些人": 9513,
      "一点都不": 9514,
      "变得更加": 9515,
      "忽然说道": 9516,
      "组织的": 9517,
      "本身就是": 9518,
      "五阶": 9519,
      "光辉": 9520,
      "冰女": 9521,
      "刚好": 9522,
      "创造": 9523,
      "坠落": 9524,
      "小团子": 9525,
      "总不能": 9526,
      "恭喜": 9527,
      "指点": 9528,
      "是没有": 9529,
      "梦境": 9530,
      "热情": 9531,
      "生产": 9532,
      "用最快的速度": 9533,
      "考验": 9534,
      "耳边": 9535,
      "重创": 9536,
      "还有不少": 9537,
      "并且还": 9538,
      "位的": 9539,
      "你这个": 9540,
      "充满": 9541,
      "再也": 9542,
      "农务": 9543,
      "和德爷": 9544,
      "在一个": 9545,
      "场景": 9546,
      "往外": 9547,
      "更快": 9548,
      "沙滩": 9549,
      "潇潇": 9550,
      "烧制": 9551,
      "玩的": 9552,
      "瑞士": 9553,
      "神坛": 9554,
      "神情": 9555,
      "秃猴": 9556,
      "联手": 9557,
      "茶叶": 9558,
      "还算": 9559,
      "避开": 9560,
      "什么的": 9561,
      "不用担心": 9562,
      "00米": 9563,
      "两名选手": 9564,
      "战争机器人": 9565,
      "全军覆没": 9566,
      "不安": 9567,
      "列车": 9568,
      "别院": 9569,
      "呈现": 9570,
      "咳咳": 9571,
      "够了": 9572,
      "宇宙": 9573,
      "巴掌": 9574,
      "怀孕": 9575,
      "曹巍": 9576,
      "毒蛇": 9577,
      "点燃": 9578,
      "爆发出": 9579,
      "的黑": 9580,
      "睡不着": 9581,
      "这下": 9582,
      "邀请": 9583,
      "闭上": 9584,
      "雨林": 9585,
      "已经死了": 9586,
      "不要再": 9587,
      "并没有什么": 9588,
      "无论如何": 9589,
      "兽兵": 9590,
      "厚的": 9591,
      "太好了": 9592,
      "快步": 9593,
      "打击": 9594,
      "捡尸": 9595,
      "火元素": 9596,
      "着她": 9597,
      "离谱": 9598,
      "话题": 9599,
      "退出": 9600,
      "黄冰冰": 9601,
      "他们也": 9602,
      "变得越发": 9603,
      "原本的": 9604,
      "绿水蚺的": 9605,
      "范围内": 9606,
      "贝爷和德爷": 9607,
      "农务学院": 9608,
      "上门": 9609,
      "不舍": 9610,
      "主持": 9611,
      "举动": 9612,
      "人们": 9613,
      "培养": 9614,
      "戴着": 9615,
      "报复": 9616,
      "撞击": 9617,
      "没好": 9618,
      "种种": 9619,
      "给咬": 9620,
      "臭味": 9621,
      "被困": 9622,
      "赵潇潇": 9623,
      "进度": 9624,
      "量的": 9625,
      "下一秒": 9626,
      "黄金猛犸": 9627,
      "脑海中": 9628,
      "摸了摸": 9629,
      "前面的": 9630,
      "后代": 9631,
      "废话": 9632,
      "意的": 9633,
      "才算是": 9634,
      "暗暗": 9635,
      "滋润": 9636,
      "炼铁": 9637,
      "秦夫人": 9638,
      "绳子": 9639,
      "虚空": 9640,
      "这支": 9641,
      "重生": 9642,
      "长长的": 9643,
      "项链": 9644,
      "一直都是": 9645,
      "神代千": 9646,
      "瞪大了眼睛": 9647,
      "梦特特": 9648,
      "一组": 9649,
      "乐山": 9650,
      "凯门": 9651,
      "出什么": 9652,
      "受了": 9653,
      "口水": 9654,
      "叮嘱": 9655,
      "奇迹": 9656,
      "姜树": 9657,
      "威力": 9658,
      "它是": 9659,
      "干了": 9660,
      "庆祝": 9661,
      "无表情": 9662,
      "李束": 9663,
      "犰狳": 9664,
      "猛兽": 9665,
      "的关系": 9666,
      "真要": 9667,
      "眼看": 9668,
      "类的": 9669,
      "蔓延": 9670,
      "一个是": 9671,
      "那么简单": 9672,
      "一直没有": 9673,
      "观众们全都": 9674,
      "神代家族": 9675,
      "的那位": 9676,
      "庆氏影子": 9677,
      "了他一眼": 9678,
      "深吸口气": 9679,
      "摄魂天精皇": 9680,
      "皱起眉头": 9681,
      "神代千赤": 9682,
      "凯门鳄": 9683,
      "也只有": 9684,
      "交给": 9685,
      "从此": 9686,
      "军刀": 9687,
      "几次": 9688,
      "哪有": 9689,
      "安心": 9690,
      "寻常": 9691,
      "左手": 9692,
      "当她": 9693,
      "把这个": 9694,
      "注射": 9695,
      "珍贵": 9696,
      "素质": 9697,
      "薛亮": 9698,
      "虚幻": 9699,
      "走出来": 9700,
      "透明": 9701,
      "难得": 9702,
      "我们要": 9703,
      "如果有": 9704,
      "苏小柒也": 9705,
      "有一只": 9706,
      "出去了": 9707,
      "叶寒的直播间当中": 9708,
      "睡觉了": 9709,
      "保持着": 9710,
      "静静的": 9711,
      "一惊": 9712,
      "丹顶": 9713,
      "但实际上": 9714,
      "刚落": 9715,
      "好多": 9716,
      "底蕴": 9717,
      "挣脱": 9718,
      "旅游": 9719,
      "桃树妖": 9720,
      "火凤": 9721,
      "的看向": 9722,
      "看清楚": 9723,
      "着脸": 9724,
      "碾压": 9725,
      "般的": 9726,
      "设计": 9727,
      "这群": 9728,
      "顶级": 9729,
      "不是说": 9730,
      "毕竟是": 9731,
      "听说过": 9732,
      "显然是": 9733,
      "主角": 9734,
      "光妈": 9735,
      "哀嚎": 9736,
      "家庭": 9737,
      "工智能": 9738,
      "弱的": 9739,
      "感兴趣": 9740,
      "我之前": 9741,
      "放着": 9742,
      "救我": 9743,
      "欢迎": 9744,
      "没啥": 9745,
      "满是": 9746,
      "演员": 9747,
      "电筒": 9748,
      "的强大": 9749,
      "细节": 9750,
      "胆子": 9751,
      "薛乐山": 9752,
      "见的": 9753,
      "辅助": 9754,
      "近了": 9755,
      "这要是": 9756,
      "迷宫": 9757,
      "他们是": 9758,
      "这个名字": 9759,
      "他的话": 9760,
      "整个人都": 9761,
      "相当于是": 9762,
      "挣扎着": 9763,
      "瑞士军刀": 9764,
      "严肃": 9765,
      "他开始": 9766,
      "你应该": 9767,
      "公屏": 9768,
      "剧情": 9769,
      "却依旧": 9770,
      "嘲讽": 9771,
      "地阴": 9772,
      "小羽": 9773,
      "才知道": 9774,
      "李神坛": 9775,
      "柴火": 9776,
      "活了": 9777,
      "的前": 9778,
      "索尔": 9779,
      "老檀": 9780,
      "若无": 9781,
      "走出了": 9782,
      "鲸岛": 9783,
      "全都被": 9784,
      "并不算": 9785,
      "越来越多": 9786,
      "脚步声": 9787,
      "前世的": 9788,
      "通讯频": 9789,
      "回应道": 9790,
      "话音刚落": 9791,
      "02": 9792,
      "七天": 9793,
      "人数": 9794,
      "前所未": 9795,
      "剑芒": 9796,
      "天空中": 9797,
      "她又": 9798,
      "投票": 9799,
      "抽搐": 9800,
      "游客": 9801,
      "狂风": 9802,
      "的吧": 9803,
      "的直播间": 9804,
      "睡了": 9805,
      "视野": 9806,
      "龙王": 9807,
      "就是要": 9808,
      "简直就是": 9809,
      "参赛者": 9810,
      "觉醒者": 9811,
      "小狼狗": 9812,
      "两句": 9813,
      "你再": 9814,
      "例如": 9815,
      "到他": 9816,
      "十万": 9817,
      "大喊": 9818,
      "才可以": 9819,
      "敲门": 9820,
      "晚了": 9821,
      "没必要": 9822,
      "疼的": 9823,
      "眼了": 9824,
      "结合": 9825,
      "西装": 9826,
      "连接": 9827,
      "邪神": 9828,
      "一个小时": 9829,
      "他们已经": 9830,
      "还有点": 9831,
      "发送着": 9832,
      "了这个": 9833,
      "储备": 9834,
      "兰登": 9835,
      "凝重": 9836,
      "功能": 9837,
      "去吧": 9838,
      "好人": 9839,
      "密特": 9840,
      "对他的": 9841,
      "就让": 9842,
      "新鲜": 9843,
      "施密特": 9844,
      "月亮": 9845,
      "玄玲": 9846,
      "琳达": 9847,
      "的衣服": 9848,
      "盖伦": 9849,
      "硝石": 9850,
      "神来": 9851,
      "红狐": 9852,
      "陶器": 9853,
      "黑凯门鳄": 9854,
      "是一名": 9855,
      "原来是": 9856,
      "千万别": 9857,
      "妖怪族和精怪族": 9858,
      "一愣": 9859,
      "一身": 9860,
      "不喜欢": 9861,
      "仆役": 9862,
      "低调": 9863,
      "其中的": 9864,
      "又能": 9865,
      "呆了": 9866,
      "告知": 9867,
      "嗜血": 9868,
      "天火": 9869,
      "幸亏": 9870,
      "想不到": 9871,
      "抓捕": 9872,
      "收割": 9873,
      "梦里": 9874,
      "点什么": 9875,
      "爬树": 9876,
      "璀璨": 9877,
      "眼珠": 9878,
      "移动": 9879,
      "缓慢": 9880,
      "转过": 9881,
      "靠着": 9882,
      "面临": 9883,
      "面无表情": 9884,
      "现在还": 9885,
      "他们都": 9886,
      "大家也都": 9887,
      "这样的情况": 9888,
      "绝对不会": 9889,
      "无比的": 9890,
      "凤凰妖族": 9891,
      "信仰之力": 9892,
      "一瞬间": 9893,
      "上一次": 9894,
      "互相": 9895,
      "他很": 9896,
      "再继续": 9897,
      "冲动": 9898,
      "出声": 9899,
      "古怪": 9900,
      "在外": 9901,
      "场地": 9902,
      "怔怔": 9903,
      "无敌": 9904,
      "杰西": 9905,
      "树屋": 9906,
      "激发": 9907,
      "现代": 9908,
      "盼着": 9909,
      "笑意": 9910,
      "精王": 9911,
      "青年": 9912,
      "我们就": 9913,
      "问题的": 9914,
      "还在继续": 9915,
      "叶寒的运气": 9916,
      "看了眼": 9917,
      "杰西卡": 9918,
      "16": 9919,
      "三阶": 9920,
      "不来": 9921,
      "丢了": 9922,
      "你就是": 9923,
      "停下了": 9924,
      "几名": 9925,
      "升腾": 9926,
      "又是一": 9927,
      "大腿": 9928,
      "好在": 9929,
      "子了": 9930,
      "安保": 9931,
      "广告": 9932,
      "快乐": 9933,
      "收缩": 9934,
      "更重要": 9935,
      "模糊": 9936,
      "游乐": 9937,
      "溜达": 9938,
      "的孩子": 9939,
      "眼睁": 9940,
      "穿梭": 9941,
      "而下": 9942,
      "许久": 9943,
      "车厢": 9944,
      "这会儿": 9945,
      "这小子": 9946,
      "龙鱼": 9947,
      "了一块": 9948,
      "这一场": 9949,
      "这是一个": 9950,
      "俞北冥的": 9951,
      "根本没": 9952,
      "一切都": 9953,
      "笑眯眯的说道": 9954,
      "事业部": 9955,
      "金安国": 9956,
      "眼睁睁": 9957,
      "一辆": 9958,
      "了上去": 9959,
      "可别": 9960,
      "喃喃": 9961,
      "地带": 9962,
      "娃娃": 9963,
      "孤独": 9964,
      "毛病": 9965,
      "汇合": 9966,
      "认输": 9967,
      "越野": 9968,
      "转眼": 9969,
      "唐三就": 9970,
      "了一层": 9971,
      "的人都": 9972,
      "这种东西": 9973,
      "观众们也都": 9974,
      "不了多久": 9975,
      "我还以为": 9976,
      "机械肢体": 9977,
      "阴阳师": 9978,
      "伙伴们": 9979,
      "风光CP": 9980,
      "下一个": 9981,
      "争夺": 9982,
      "化作": 9983,
      "半点": 9984,
      "原谅": 9985,
      "她俩": 9986,
      "摄像": 9987,
      "柔和": 9988,
      "灯光": 9989,
      "的山": 9990,
      "着实": 9991,
      "着他的": 9992,
      "走来": 9993,
      "难民": 9994,
      "看到过": 9995,
      "孔雀变": 9996,
      "这才是": 9997,
      "几个人": 9998,
      "就可以了": 9999,
      "还不错": 10000,
      "一只手": 10001,
      "热带雨林": 10002,
      "史莱克战队": 10003,
      "一万": 10004,
      "一生": 10005,
      "七八": 10006,
      "六个": 10007,
      "嗓子": 10008,
      "大野猪": 10009,
      "对他们": 10010,
      "急了": 10011,
      "我不知道": 10012,
      "早晚": 10013,
      "烂的": 10014,
      "男朋友": 10015,
      "站着": 10016,
      "能吃": 10017,
      "还怎么": 10018,
      "那名": 10019,
      "高了": 10020,
      "唐三没有": 10021,
      "比赛台": 10022,
      "咱们的": 10023,
      "十一阶": 10024,
      "暗影之门": 10025,
      "不不": 10026,
      "与他": 10027,
      "东林": 10028,
      "之上的": 10029,
      "他也不": 10030,
      "出口": 10031,
      "切割": 10032,
      "去世": 10033,
      "发麻": 10034,
      "善良": 10035,
      "大型": 10036,
      "将它": 10037,
      "幅度": 10038,
      "我又": 10039,
      "我把": 10040,
      "战术": 10041,
      "活下来": 10042,
      "海里": 10043,
      "百目": 10044,
      "苏醒": 10045,
      "轰隆": 10046,
      "锅里": 10047,
      "叶寒把": 10048,
      "虽然没有": 10049,
      "有一次": 10050,
      "空间之力": 10051,
      "得到的": 10052,
      "这片区域": 10053,
      "半山庄园": 10054,
      "万万没想到": 10055,
      "下降": 10056,
      "他看着": 10057,
      "优秀": 10058,
      "低了": 10059,
      "卡布里": 10060,
      "喝水": 10061,
      "在内": 10062,
      "她还": 10063,
      "姜琳达": 10064,
      "少爷": 10065,
      "思议": 10066,
      "掩盖": 10067,
      "擦了": 10068,
      "热搜": 10069,
      "环绕": 10070,
      "百百目": 10071,
      "秦东林": 10072,
      "耳机": 10073,
      "艺术": 10074,
      "花费": 10075,
      "藏着": 10076,
      "这货": 10077,
      "长矛": 10078,
      "已经有了": 10079,
      "了一般": 10080,
      "这样一来": 10081,
      "一直都在": 10082,
      "明显是": 10083,
      "不死火凤": 10084,
      "狮虎族": 10085,
      "收拾东西": 10086,
      "竞拍者": 10087,
      "神代空屿": 10088,
      "百百目鬼": 10089,
      "一丝": 10090,
      "不像是": 10091,
      "丫头": 10092,
      "二人": 10093,
      "亲戚": 10094,
      "傻了": 10095,
      "密密": 10096,
      "我听说": 10097,
      "拿着一": 10098,
      "挡住": 10099,
      "掉的": 10100,
      "收到": 10101,
      "来这里": 10102,
      "树叶": 10103,
      "沉思": 10104,
      "碰到": 10105,
      "笑不得": 10106,
      "蒸汽": 10107,
      "郑老板": 10108,
      "金钱": 10109,
      "唐三心中": 10110,
      "这个直播间": 10111,
      "然后是": 10112,
      "出现过": 10113,
      "过去的": 10114,
      "生命气息": 10115,
      "尼古拉的": 10116,
      "悄悄地": 10117,
      "金鹏变": 10118,
      "一击": 10119,
      "了自己": 10120,
      "再看看": 10121,
      "勇气": 10122,
      "匕首": 10123,
      "十个": 10124,
      "同情": 10125,
      "小唐": 10126,
      "年龄": 10127,
      "深深的": 10128,
      "特种": 10129,
      "狰狞": 10130,
      "用手": 10131,
      "网红": 10132,
      "获胜": 10133,
      "被发现": 10134,
      "都得": 10135,
      "颔首": 10136,
      "什么都": 10137,
      "不过是": 10138,
      "动物们": 10139,
      "昨天晚上": 10140,
      "很多观众都": 10141,
      "这么一说": 10142,
      "丹顶鹤": 10143,
      "一听": 10144,
      "不小": 10145,
      "为你": 10146,
      "初一": 10147,
      "叔叔": 10148,
      "同事": 10149,
      "哭笑不得": 10150,
      "大片": 10151,
      "太大了": 10152,
      "她已经": 10153,
      "懒得": 10154,
      "拳手": 10155,
      "时机": 10156,
      "更大的": 10157,
      "没死": 10158,
      "涌入": 10159,
      "爪子": 10160,
      "用自己的": 10161,
      "的工作": 10162,
      "符合": 10163,
      "结局": 10164,
      "给人": 10165,
      "给的": 10166,
      "语言": 10167,
      "诸位": 10168,
      "院长": 10169,
      "食材": 10170,
      "都是在": 10171,
      "俞北冥道": 10172,
      "第二个": 10173,
      "狙击枪": 10174,
      "三位": 10175,
      "了下": 10176,
      "偷袭": 10177,
      "动力": 10178,
      "南方": 10179,
      "将自己的": 10180,
      "就只能": 10181,
      "巧合": 10182,
      "忌惮": 10183,
      "我不想": 10184,
      "景房": 10185,
      "月光": 10186,
      "某些": 10187,
      "民众": 10188,
      "求救": 10189,
      "焦急": 10190,
      "的一些": 10191,
      "示意": 10192,
      "窗外": 10193,
      "精血": 10194,
      "纠结": 10195,
      "见识": 10196,
      "车子": 10197,
      "这把": 10198,
      "那可": 10199,
      "阵法": 10200,
      "香水": 10201,
      "麻麻": 10202,
      "怎么就": 10203,
      "还是有": 10204,
      "身体周围": 10205,
      "一般人": 10206,
      "天狐圣山": 10207,
      "他俩的": 10208,
      "有所思": 10209,
      "神秘事业部": 10210,
      "50": 10211,
      "东民": 10212,
      "之法": 10213,
      "也只能": 10214,
      "事了": 10215,
      "何等": 10216,
      "停留": 10217,
      "别看": 10218,
      "国选手": 10219,
      "在此": 10220,
      "多小时": 10221,
      "当它": 10222,
      "必死": 10223,
      "收入": 10224,
      "晓燕": 10225,
      "洗澡": 10226,
      "烟草": 10227,
      "牺牲": 10228,
      "猛虎": 10229,
      "的脸上": 10230,
      "眼的": 10231,
      "而此时的": 10232,
      "自我": 10233,
      "认知": 10234,
      "还真的": 10235,
      "金蒙": 10236,
      "我们是": 10237,
      "这么好": 10238,
      "是一件": 10239,
      "面对的": 10240,
      "黄金狮子": 10241,
      "到底是什么": 10242,
      "在这一瞬": 10243,
      "不愧是": 10244,
      "一分": 10245,
      "一族": 10246,
      "下山": 10247,
      "不觉": 10248,
      "不足": 10249,
      "他觉得": 10250,
      "你以为": 10251,
      "倒了": 10252,
      "冲天": 10253,
      "凶猛": 10254,
      "升起": 10255,
      "在想": 10256,
      "天亮": 10257,
      "小姑娘": 10258,
      "手上的": 10259,
      "报名": 10260,
      "每一位": 10261,
      "王室": 10262,
      "的掌控": 10263,
      "穿了": 10264,
      "老二": 10265,
      "能在": 10266,
      "能看到": 10267,
      "苍白": 10268,
      "若有所思": 10269,
      "闲着": 10270,
      "隔绝": 10271,
      "骨骼": 10272,
      "已经完全": 10273,
      "唐三身上": 10274,
      "可以用": 10275,
      "还有就是": 10276,
      "一次次": 10277,
      "就会被": 10278,
      "变得越来越": 10279,
      "不太好": 10280,
      "一阵子": 10281,
      "想象中": 10282,
      "关闭了": 10283,
      "脑海里": 10284,
      "混沌之气": 10285,
      "世外": 10286,
      "你说的": 10287,
      "克制": 10288,
      "分享": 10289,
      "发动": 10290,
      "叹了口气": 10291,
      "大声": 10292,
      "实战": 10293,
      "废物": 10294,
      "心态": 10295,
      "打造": 10296,
      "男性": 10297,
      "留下了": 10298,
      "看出来了": 10299,
      "矛盾": 10300,
      "老老实": 10301,
      "这方面": 10302,
      "连连": 10303,
      "道士": 10304,
      "庆尘与": 10305,
      "唐三也": 10306,
      "了一把": 10307,
      "就在他": 10308,
      "竟然还": 10309,
      "好几次": 10310,
      "密密麻麻": 10311,
      "他却": 10312,
      "你觉得": 10313,
      "修仙": 10314,
      "元语": 10315,
      "分开": 10316,
      "四名": 10317,
      "宝石": 10318,
      "宠物": 10319,
      "小山": 10320,
      "总部": 10321,
      "我不会": 10322,
      "我也不知道": 10323,
      "接过": 10324,
      "搞得": 10325,
      "沟通": 10326,
      "活的": 10327,
      "熏制": 10328,
      "琉璃": 10329,
      "秋叶": 10330,
      "能让": 10331,
      "走过": 10332,
      "过瘾": 10333,
      "自己也": 10334,
      "庆尘已经": 10335,
      "庆尘看着": 10336,
      "最终的": 10337,
      "这也是为什么": 10338,
      "短暂的": 10339,
      "擦了擦": 10340,
      "件事": 10341,
      "估摸着": 10342,
      "兜里": 10343,
      "半年": 10344,
      "南宫": 10345,
      "发的": 10346,
      "和自己": 10347,
      "干掉": 10348,
      "得罪": 10349,
      "总共": 10350,
      "按理": 10351,
      "更有": 10352,
      "木头": 10353,
      "杀气": 10354,
      "树干": 10355,
      "激烈": 10356,
      "理智": 10357,
      "男人的": 10358,
      "真心": 10359,
      "羁公子": 10360,
      "见状": 10361,
      "让叶寒": 10362,
      "说他": 10363,
      "责任": 10364,
      "那样的": 10365,
      "这个东西": 10366,
      "两人都": 10367,
      "神代靖": 10368,
      "自然而": 10369,
      "唯一的": 10370,
      "张承泽": 10371,
      "南宫元语": 10372,
      "一波": 10373,
      "主的": 10374,
      "之为": 10375,
      "你居然": 10376,
      "保密": 10377,
      "先知": 10378,
      "减少": 10379,
      "去的": 10380,
      "对比": 10381,
      "并未": 10382,
      "庄晓燕": 10383,
      "心中的": 10384,
      "我怕": 10385,
      "我看到": 10386,
      "我相信": 10387,
      "抓紧": 10388,
      "抽取": 10389,
      "拳馆": 10390,
      "挡住了": 10391,
      "星球": 10392,
      "月山": 10393,
      "森林": 10394,
      "河流": 10395,
      "的头": 10396,
      "科学": 10397,
      "缠绕": 10398,
      "街上": 10399,
      "让唐三": 10400,
      "音乐": 10401,
      "如果不": 10402,
      "发现自己": 10403,
      "能够在": 10404,
      "甚至还有": 10405,
      "生命力": 10406,
      "那边的": 10407,
      "我也想": 10408,
      "过程当中": 10409,
      "聚居地": 10410,
      "一团": 10411,
      "上面的": 10412,
      "不惜": 10413,
      "乘坐": 10414,
      "了指": 10415,
      "储存": 10416,
      "兰星": 10417,
      "分之一": 10418,
      "受不了": 10419,
      "吃过了": 10420,
      "回去了": 10421,
      "在山": 10422,
      "怨气": 10423,
      "我刚": 10424,
      "文明": 10425,
      "杀的": 10426,
      "烤肉": 10427,
      "的眼睛": 10428,
      "看一眼": 10429,
      "称之为": 10430,
      "站了起来": 10431,
      "紫兰星": 10432,
      "说得": 10433,
      "账号": 10434,
      "那也": 10435,
      "真的有": 10436,
      "祖庭精英赛": 10437,
      "提升到": 10438,
      "还不够": 10439,
      "难道是": 10440,
      "百分之": 10441,
      "希伯来": 10442,
      "一出": 10443,
      "不甘": 10444,
      "为此": 10445,
      "以赴": 10446,
      "会出现": 10447,
      "全是": 10448,
      "口子": 10449,
      "叫什么": 10450,
      "吃饱": 10451,
      "喵呜": 10452,
      "地点": 10453,
      "完美": 10454,
      "平日": 10455,
      "找了": 10456,
      "散了": 10457,
      "本能": 10458,
      "注定": 10459,
      "爱情": 10460,
      "由于": 10461,
      "的血": 10462,
      "矩阵": 10463,
      "竞争": 10464,
      "该如何": 10465,
      "不会是": 10466,
      "这是在": 10467,
      "眼睛一亮": 10468,
      "来到这里": 10469,
      "冷风和张浩然": 10470,
      "放弃了": 10471,
      "全力以赴": 10472,
      "嘀咕道": 10473,
      "上方": 10474,
      "准皇": 10475,
      "反对": 10476,
      "发起": 10477,
      "封印": 10478,
      "射击": 10479,
      "平台": 10480,
      "张俭": 10481,
      "当唐三": 10482,
      "徐林": 10483,
      "我跟": 10484,
      "桃源": 10485,
      "桌子": 10486,
      "水果": 10487,
      "深入": 10488,
      "湖边": 10489,
      "瀑景房": 10490,
      "献祭": 10491,
      "福利": 10492,
      "许自然": 10493,
      "送给": 10494,
      "重视": 10495,
      "错误": 10496,
      "闸门": 10497,
      "有一位": 10498,
      "根本就不": 10499,
      "陈氏画师": 10500,
      "徐林森": 10501,
      "KO": 10502,
      "下场": 10503,
      "云雨": 10504,
      "他所": 10505,
      "以外": 10506,
      "体的": 10507,
      "又被": 10508,
      "听不懂": 10509,
      "在自己的": 10510,
      "很不错": 10511,
      "恶人": 10512,
      "神的": 10513,
      "米的": 10514,
      "裁决": 10515,
      "认真的": 10516,
      "蹲在": 10517,
      "酿酒": 10518,
      "防备": 10519,
      "他们就": 10520,
      "了一番": 10521,
      "也不好": 10522,
      "一定程度": 10523,
      "是一片": 10524,
      "这两天": 10525,
      "吸引了": 10526,
      "九阶巅峰": 10527,
      "娱乐圈": 10528,
      "沙发上": 10529,
      "也有些": 10530,
      "也跟着": 10531,
      "买的": 10532,
      "仇恨": 10533,
      "你把": 10534,
      "偷了": 10535,
      "去医院": 10536,
      "多元": 10537,
      "大笑": 10538,
      "好好的": 10539,
      "家中": 10540,
      "封文": 10541,
      "情侣": 10542,
      "打坐": 10543,
      "打不过": 10544,
      "执掌": 10545,
      "数字": 10546,
      "新蚯蚓队": 10547,
      "旁观": 10548,
      "沾染": 10549,
      "火山": 10550,
      "火车": 10551,
      "累了": 10552,
      "绛月山": 10553,
      "西南": 10554,
      "见证": 10555,
      "过得": 10556,
      "这可": 10557,
      "送到": 10558,
      "那头": 10559,
      "顿饭": 10560,
      "此时在": 10561,
      "生命之塔": 10562,
      "孩子的": 10563,
      "第二次": 10564,
      "基本都是": 10565,
      "坚持到": 10566,
      "不可思议": 10567,
      "内心之中": 10568,
      "不满": 10569,
      "不通": 10570,
      "个小": 10571,
      "主意": 10572,
      "他虽然": 10573,
      "伪装": 10574,
      "但叶寒": 10575,
      "十天": 10576,
      "压缩": 10577,
      "只想": 10578,
      "合金": 10579,
      "和唐三": 10580,
      "在场的": 10581,
      "天堂": 10582,
      "尘哥": 10583,
      "当天": 10584,
      "慌张": 10585,
      "我一直": 10586,
      "星空": 10587,
      "王者": 10588,
      "用工兵铲": 10589,
      "着头": 10590,
      "紧紧": 10591,
      "纹路": 10592,
      "综艺": 10593,
      "罗刚": 10594,
      "老太太": 10595,
      "茫然": 10596,
      "跑跑": 10597,
      "采摘": 10598,
      "首领": 10599,
      "高层": 10600,
      "什么地方": 10601,
      "不少观众": 10602,
      "不得不": 10603,
      "兄弟们": 10604,
      "从来没有": 10605,
      "叹息道": 10606,
      "值得一提": 10607,
      "发送着弹幕": 10608,
      "封文彦": 10609,
      "下头": 10610,
      "九尾": 10611,
      "了多少": 10612,
      "亢奋": 10613,
      "但对于": 10614,
      "你已经": 10615,
      "你放心": 10616,
      "历练": 10617,
      "小区": 10618,
      "尔曼": 10619,
      "张清": 10620,
      "往往": 10621,
      "惨叫": 10622,
      "我不能": 10623,
      "我要是": 10624,
      "抗衡": 10625,
      "无辜": 10626,
      "智商": 10627,
      "比他": 10628,
      "沐云雨": 10629,
      "相处": 10630,
      "确保": 10631,
      "至阳": 10632,
      "要在": 10633,
      "视一眼": 10634,
      "认出": 10635,
      "质疑": 10636,
      "重复": 10637,
      "韩东民": 10638,
      "饭菜": 10639,
      "了一场": 10640,
      "也不过": 10641,
      "不知道多少": 10642,
      "比赛开始": 10643,
      "准备的": 10644,
      "相比于": 10645,
      "冰女族": 10646,
      "值得一提的是": 10647,
      "不羁公子": 10648,
      "亲手": 10649,
      "作业": 10650,
      "保安": 10651,
      "催促": 10652,
      "冲锋": 10653,
      "加快": 10654,
      "吃惊": 10655,
      "天劫": 10656,
      "小彤雲": 10657,
      "就跟": 10658,
      "当他们": 10659,
      "我怀疑": 10660,
      "我老婆": 10661,
      "扳机": 10662,
      "护士": 10663,
      "死后": 10664,
      "死我了": 10665,
      "消化": 10666,
      "粪便": 10667,
      "讨厌": 10668,
      "走过来": 10669,
      "长相": 10670,
      "饿了": 10671,
      "这个山洞": 10672,
      "直接被": 10673,
      "神州国选手": 10674,
      "危险了": 10675,
      "属于自己的": 10676,
      "坚持下去": 10677,
      "朱传奇的": 10678,
      "24": 10679,
      "不明白": 10680,
      "五千": 10681,
      "他看向": 10682,
      "保存": 10683,
      "别着急": 10684,
      "回复": 10685,
      "坏人": 10686,
      "坚定": 10687,
      "她现在": 10688,
      "就跑": 10689,
      "帮她": 10690,
      "报道": 10691,
      "族群": 10692,
      "早早": 10693,
      "楼的": 10694,
      "没用": 10695,
      "火药": 10696,
      "竹筒": 10697,
      "英语": 10698,
      "表面上": 10699,
      "防护": 10700,
      "看到他": 10701,
      "这种时候": 10702,
      "一样了": 10703,
      "是一点": 10704,
      "默默的看着": 10705,
      "扎日格勒和": 10706,
      "灵犀鹿妖": 10707,
      "共济会": 10708,
      "挡雨棚": 10709,
      "张清欢": 10710,
      "一一": 10711,
      "上来说": 10712,
      "不像": 10713,
      "不准": 10714,
      "充分": 10715,
      "先去": 10716,
      "大大": 10717,
      "天生": 10718,
      "巧克": 10719,
      "我好": 10720,
      "拉扯": 10721,
      "显现": 10722,
      "智慧": 10723,
      "最关键": 10724,
      "求求": 10725,
      "海洋": 10726,
      "玩玩": 10727,
      "的唐三": 10728,
      "的痕迹": 10729,
      "箱子": 10730,
      "给予": 10731,
      "虚影": 10732,
      "西瓜": 10733,
      "雕像": 10734,
      "也是个": 10735,
      "庆氏的": 10736,
      "众位皇者": 10737,
      "也就在这个时候": 10738,
      "世外桃源": 10739,
      "A02": 10740,
      "一方面": 10741,
      "低沉": 10742,
      "你为什么": 10743,
      "分散": 10744,
      "到自己": 10745,
      "和尚": 10746,
      "咳嗽": 10747,
      "外卖": 10748,
      "外星": 10749,
      "就走": 10750,
      "局面": 10751,
      "带上": 10752,
      "带来了": 10753,
      "想吃": 10754,
      "我就不": 10755,
      "手电筒": 10756,
      "拿出一": 10757,
      "灭了": 10758,
      "爱的": 10759,
      "看在": 10760,
      "眼眶": 10761,
      "破天": 10762,
      "神祗": 10763,
      "经纪": 10764,
      "自信": 10765,
      "蕴含": 10766,
      "虚无": 10767,
      "规模": 10768,
      "让大家": 10769,
      "难过": 10770,
      "顶尖": 10771,
      "额头": 10772,
      "黑桃": 10773,
      "叶寒还": 10774,
      "庆尘摇摇头": 10775,
      "也不至于": 10776,
      "……，": 10777,
      "世界上": 10778,
      "准备了": 10779,
      "获得的": 10780,
      "密谍司": 10781,
      "没好气": 10782,
      "17": 10783,
      "一模": 10784,
      "亮起": 10785,
      "人心": 10786,
      "光了": 10787,
      "医护": 10788,
      "喘息": 10789,
      "外套": 10790,
      "大人物": 10791,
      "大幅度": 10792,
      "将他们": 10793,
      "就不是": 10794,
      "就不能": 10795,
      "山主": 10796,
      "所能": 10797,
      "执行": 10798,
      "把自己的": 10799,
      "指了指": 10800,
      "更别说": 10801,
      "有两": 10802,
      "桑伊": 10803,
      "毛发": 10804,
      "种族的": 10805,
      "究竟是": 10806,
      "签名": 10807,
      "至阴": 10808,
      "贾桑伊": 10809,
      "这对": 10810,
      "透露": 10811,
      "那不是": 10812,
      "那肯定": 10813,
      "野战": 10814,
      "也不算": 10815,
      "不过现在": 10816,
      "出现了一": 10817,
      "坐在地上": 10818,
      "几个月": 10819,
      "妖怪族的": 10820,
      "水晶城": 10821,
      "情报人员": 10822,
      "罗斯福王国": 10823,
      "保留": 10824,
      "傍晚": 10825,
      "兴致": 10826,
      "可可": 10827,
      "吓唬": 10828,
      "大坑": 10829,
      "打扰": 10830,
      "拥有了": 10831,
      "拿了": 10832,
      "整座": 10833,
      "无可": 10834,
      "气势": 10835,
      "瀑布": 10836,
      "片区域": 10837,
      "的比赛": 10838,
      "的概率": 10839,
      "真气": 10840,
      "肚子里": 10841,
      "脖子上": 10842,
      "荡荡": 10843,
      "蛋糕": 10844,
      "贡献": 10845,
      "阿旺": 10846,
      "黑骑士": 10847,
      "庆尘点点头": 10848,
      "这一战": 10849,
      "也是因为": 10850,
      "那么容易": 10851,
      "禁忌之": 10852,
      "鳄鱼神将": 10853,
      "等着看": 10854,
      "不算什么": 10855,
      "一时之间": 10856,
      "扎日格勒和阿努金": 10857,
      "五人": 10858,
      "他被": 10859,
      "他看到": 10860,
      "你还是": 10861,
      "做过": 10862,
      "在庆尘": 10863,
      "多了一": 10864,
      "她说": 10865,
      "张三": 10866,
      "很有可能": 10867,
      "成绩": 10868,
      "把他们": 10869,
      "救了": 10870,
      "表演": 10871,
      "过分": 10872,
      "迷糊": 10873,
      "间的": 10874,
      "阴气": 10875,
      "顾不上": 10876,
      "鲁斯": 10877,
      "什么情况": 10878,
      "这样的人": 10879,
      "这些事情": 10880,
      "粉丝们": 10881,
      "沉默了": 10882,
      "是怎么回事": 10883,
      "谁能想到": 10884,
      "医护人员": 10885,
      "之王": 10886,
      "亲近": 10887,
      "他突然": 10888,
      "克鲁斯": 10889,
      "发言": 10890,
      "在了一": 10891,
      "在这个时候": 10892,
      "地上的": 10893,
      "声响": 10894,
      "太好": 10895,
      "庆坤": 10896,
      "开的": 10897,
      "恭敬": 10898,
      "惦记": 10899,
      "木薯": 10900,
      "的方法": 10901,
      "脸颊": 10902,
      "花了": 10903,
      "蜕变": 10904,
      "裂痕": 10905,
      "超过了": 10906,
      "都非常": 10907,
      "重量": 10908,
      "闪避": 10909,
      "领袖": 10910,
      "黑了": 10911,
      "叶寒又": 10912,
      "叶寒就": 10913,
      "直播间里的": 10914,
      "里世界的": 10915,
      "经历了": 10916,
      "一步步": 10917,
      "属性的": 10918,
      "救赎组织": 10919,
      "代表着": 10920,
      "剩余的": 10921,
      "久了": 10922,
      "也需要": 10923,
      "从前": 10924,
      "刻意": 10925,
      "呼唤": 10926,
      "在里面": 10927,
      "将那": 10928,
      "层级": 10929,
      "带回来": 10930,
      "年了": 10931,
      "幻影": 10932,
      "比我": 10933,
      "泪水": 10934,
      "清洗": 10935,
      "白光": 10936,
      "羊肉": 10937,
      "落入": 10938,
      "袅袅": 10939,
      "迫不及": 10940,
      "追上": 10941,
      "酒吧": 10942,
      "面子": 10943,
      "风雪": 10944,
      "高空": 10945,
      "鲸爆": 10946,
      "已经把": 10947,
      "一个问题": 10948,
      "的一点": 10949,
      "的一部分": 10950,
      "不知道的是": 10951,
      "金刚城": 10952,
      "传送阵": 10953,
      "青山号": 10954,
      "复制体": 10955,
      "迫不及待": 10956,
      "上下": 10957,
      "上空": 10958,
      "冷笑道": 10959,
      "几百": 10960,
      "力场": 10961,
      "发抖": 10962,
      "在整个": 10963,
      "宗丞": 10964,
      "将来": 10965,
      "就见": 10966,
      "庆原": 10967,
      "强壮": 10968,
      "很明显": 10969,
      "怎样": 10970,
      "抛弃": 10971,
      "推开": 10972,
      "无语": 10973,
      "暗器": 10974,
      "束缚": 10975,
      "残酷": 10976,
      "盘膝": 10977,
      "种子": 10978,
      "约定": 10979,
      "行止": 10980,
      "重重": 10981,
      "阵子": 10982,
      "面目": 10983,
      "出来一个": 10984,
      "如果我": 10985,
      "这种感觉": 10986,
      "神代财团": 10987,
      "两个小时": 10988,
      "遇到过": 10989,
      "000": 10990,
      "的看着他": 10991,
      "相比之下": 10992,
      "空气中": 10993,
      "战场上": 10994,
      "闪烁着": 10995,
      "半个月": 10996,
      "深吸一口气": 10997,
      "习惯了": 10998,
      "流露出一": 10999,
      "叶寒和小柒": 11000,
      "一面": 11001,
      "不由": 11002,
      "你刚才": 11003,
      "像个": 11004,
      "反而是": 11005,
      "和叶寒": 11006,
      "在这样的": 11007,
      "坐镇": 11008,
      "大小": 11009,
      "媒体": 11010,
      "就该": 11011,
      "就只有": 11012,
      "岩浆": 11013,
      "心跳": 11014,
      "我需要": 11015,
      "打招呼": 11016,
      "抽烟": 11017,
      "摆手": 11018,
      "最多的": 11019,
      "李秉": 11020,
      "牛跑跑": 11021,
      "的老板": 11022,
      "的瞬间": 11023,
      "的提升": 11024,
      "的效果": 11025,
      "相亲": 11026,
      "瞅着": 11027,
      "穿着一": 11028,
      "详细": 11029,
      "陌生": 11030,
      "马老师": 11031,
      "自己去": 11032,
      "现在又": 11033,
      "还是在": 11034,
      "大妖皇的": 11035,
      "今天晚上": 11036,
      "根本无法": 11037,
      "神州国的选手": 11038,
      "依旧在": 11039,
      "黄金山谷": 11040,
      "猫侦探的": 11041,
      "今晚的": 11042,
      "树祖的": 11043,
      "这两位": 11044,
      "火黎族": 11045,
      "连串的": 11046,
      "前所未有的": 11047,
      "绛月山庄": 11048,
      "李秉熙": 11049,
      "19": 11050,
      "三百": 11051,
      "交谈": 11052,
      "你到底": 11053,
      "入侵": 11054,
      "半晌": 11055,
      "奇妙": 11056,
      "带你": 11057,
      "恒社": 11058,
      "想看看": 11059,
      "我给": 11060,
      "打扫": 11061,
      "挥动": 11062,
      "精力": 11063,
      "系列": 11064,
      "至今": 11065,
      "苏行止": 11066,
      "苦笑道": 11067,
      "视线": 11068,
      "唐三微微一笑": 11069,
      "此时已经": 11070,
      "那么大": 11071,
      "任何人": 11072,
      "个人赛": 11073,
      "运气好": 11074,
      "的心情": 11075,
      "的光彩": 11076,
      "关注着": 11077,
      "认真说道": 11078,
      "丹顶鹤妖": 11079,
      "必死无疑": 11080,
      "金蒙变": 11081,
      "一同": 11082,
      "不认识": 11083,
      "举起": 11084,
      "做个": 11085,
      "做梦": 11086,
      "充斥": 11087,
      "冰针": 11088,
      "出入": 11089,
      "四人": 11090,
      "固定": 11091,
      "奖金": 11092,
      "安娜": 11093,
      "庞盛": 11094,
      "想起了": 11095,
[...]
